{"vocab_size": 20000, "unk_id": 19985, "merge_rules": [[" ", "\u0915"], ["\u0947", " "], ["\u0940", " "], ["\u093e", " "], ["\u0930", " "], ["\u0902", " "], [" \u0915", "\u0947 "], [" ", "\u0938"], ["\u092e", "\u0947"], ["\u094d", "\u0930"], ["\u093e", "\u0930"], ["\u0939", "\u0948"], ["\u092e\u0947", "\u0902 "], ["\u093e", "\u0928"], [" ", "\u092a"], ["\u094d", "\u092f"], ["\u093f", "\u092f"], ["\u094b", " "], [" \u0915", "\u0940 "], ["\u0930", "\u094d"], [",", " "], ["\u0928", "\u0947 "], ["\u093f", "\u0915"], ["\u094b", "\u0902"], ["\u093e", "\u0932"], ["\u0938", "\u094d"], ["\u0928", " "], ["\u0939\u0948", "\u0964"], ["\u0924", " "], ["\u0938", "\u0947 "], [" \u0915", "\u094b "], ["\u0928", "\u0947"], [" \u0915", "\u093f"], ["\u0930", "\u093e"], ["\u090f", " "], ["\u0915", " "], ["\u0915", "\u094d"], ["\u0935", "\u093e"], ["\u093f", "\u0932"], [" \u0915", "\u0930"], ["\u0935", "\u093f"], ["\u094b", "\u0902 "], ["\u0914", "\u0930 "], ["\u0938", " "], [" \u0915", "\u093e "], ["\u0932", "\u093f"], ["\u0930", "\u0939"], ["\u092e", "\u093e"], ["\u092c", "\u093e"], [" ", "\u092e\u0947\u0902 "], ["\u093e", "\u0964"], [" ", "\u0939"], ["\u093e", "\u092f"], ["\u092a", "\u094d\u0930"], ["\u0926", "\u0947"], [" \u0915", "\u094b"], ["\u0902", "\u0917"], ["\u093f\u092f", "\u093e "], [" \u0938", "\u0947 "], ["\u091c", "\u093e"], ["\u092d", "\u0940 "], ["\u0924", "\u093e "], [" ", "\u092e"], ["\u0928", "\u093e "], ["\u0932", "\u093e"], ["\u094b", "\u0917"], ["\u0939", "\u0940"], ["\u0932", "\u0947"], ["\u0928", "\u093f"], ["\u0938", "\u093e"], ["\u0939\u0948", "\u0902"], ["\u0928", "\u093e"], ["\u0924", "\u093f"], ["\u0908", " "], ["\u0907", "\u0938"], ["\u0939", "\u093e"], ["\u0924", "\u094d"], ["\u0932", " "], ["\u0939", "\u0941"], ["\u0924", "\u093e"], ["\u092e", " "], [" \u0915\u0947 ", "\u0932\u093f"], ["\u0902", "\u0926"], [" \u092a", "\u094d\u0930"], ["\u0924", "\u0947 "], ["\u0930", "\u094b"], ["\u0915", "\u0947 "], ["\u0921", "\u093c"], ["\u0935", "\u093e\u0930"], [" \u0915\u093f", " "], ["\u092a", "\u0930 "], ["\u0939", " "], [" \u0915", "\u093e"], ["\u091c", "\u093f"], ["\u0915\u094d", "\u0937"], ["\u0935", " "], ["\u0928", "\u0939\u0940"], ["\u0909", "\u0928"], [" \u0915", "\u0930 "], ["\u0939\u0948\u0902", "\u0964"], ["\u0926", "\u093f"], ["\u0938", "\u0902"], ["\u0915", "\u0930 "], ["\u0930", "\u0940"], ["\u0930", "\u093f"], ["\u092d", "\u093e"], ["\u0915", "\u093f"], ["\u0941", "\u0930"], ["\u0902", "\u091a"], ["\u0917", "\u092f"], [" ", "\u092c"], [" \u0915", "\u093e\u0930"], ["\u0924", "\u094d\u0930"], ["\u0940", "\u0964"], [" \u0915", "\u0947"], [" ", "\u0905"], [" \u0915\u0947 \u0932\u093f", "\u090f "], ["\u0938\u094d", "\u0925"], ["\u094d", "\u091f"], ["\u0932", "\u0947 "], ["\u0928\u0939\u0940", "\u0902 "], ["\u0935", "\u093e\u0932"], ["\u0932", "\u0917"], [" \u092a", "\u0930 "], ["\u0902", "\u0921"], ["\u093e\u0930", "\u0940 "], ["\u092e\u0947", "\u0902"], ["\u0926", "\u094d"], [" \u0915", "\u093f\u092f\u093e "], ["\u093e", "\u0930 "], ["\u0926\u0947", "\u0936"], ["\u094d\u092f", "\u093e"], ["\u0926", " "], ["\u0939", "\u094b"], ["\u0924", "\u0940 "], ["\u093e\u0928", " "], ["\u0927", "\u093f\u0915"], ["\u092e", "\u0941"], ["\u093f", "\u0924 "], ["\u0947", "\u0964"], ["\u094b\u0902", " \u0915\u0947 "], ["\u092a", "\u093e"], ["\u0932", "\u094b\u0917"], ["\u092c", " "], ["\u093e", "\u0902"], ["\u094b\u0902", " \u0915\u094b "], ["\u093e ", "\u0939\u0948\u0964"], ["\u0947", "\u0902"], ["\u093f", "\u0924"], [" \u0915", "\u0941"], ["\u0905", "\u092a"], ["\u0940", "\u092f"], ["\u0939", "\u0940 "], ["\u091c", "\u093e "], ["\u0907", "\u0938 "], ["\u092a", "\u0941"], ["\u093f\u092f", "\u093e"], ["\u0938", "\u0940"], ["\u0947", "\u0936"], ["\u090f", "\u0915 "], ["\u0930", "\u0942"], [" ", "\u091c"], ["\u0938", "\u0940 "], [" \u0938", "\u094d"], ["\u0938", "\u0915"], ["\u093e", "\u092e"], ["\u094d", "\u0937"], ["\u0930\u093e", "\u091c"], ["\u094b\u0902", " \u0915\u0940 "], ["\u091f", " "], ["\u094b\u0902 ", "\u092e\u0947\u0902 "], ["\u0928", "\u0940 "], ["\u0905", "\u0928"], ["\u0938", "\u092e"], ["\u0930", "\u0940 "], [" \u0938", "\u0902"], ["\u0915", "\u094d\u0930"], [" \u0915\u0930", "\u0928\u0947"], ["\u0938", "\u093f"], ["\u094d", "\u0939"], ["\u0938", "\u0947"], ["\u093e\u0928", "\u0947"], ["\u0936", "\u094d"], ["\u0938\u093e", "\u0925"], ["\u0930 ", "\u092e\u0947\u0902 "], ["\u092a", "\u0942"], ["\u0928", "\u0940"], ["\u091f", "\u0940"], ["\u0905", "\u0927\u093f\u0915"], ["\u0935", "\u0930\u094d"], ["\u0947", "\u0902 "], ["\u0923", " "], ["\u0938", "\u0930"], ["\u091c", "\u0940"], ["\u093f\u0915", " "], ["\u092c", "\u0940"], ["\u0938\u094d", "\u091f"], ["\u0924", "\u0940"], ["\u0917", "\u094d\u0930"], ["\u0930\u0939", "\u0947 "], ["\u0926", "\u0940 "], ["\u0939\u0948", " "], ["\u093e\u0930", "\u094d"], ["\u093e", "\u0938"], ["2", "0"], ["\u0932", "\u094d"], ["\u0909", "\u092a"], ["\u094d\u092f", " "], ["\u0924", "\u093e\u092f"], ["\u0930", "\u0947"], ["\u0932", "\u0940 "], ["\u0915", "\u0940 "], ["\u0926", "\u093e"], ["\u0909\u0928", "\u094d\u0939"], ["\u091c", "\u0928"], ["\u0927", "\u094d\u092f"], ["\u091c\u093e", "\u090f"], ["\u092c", "\u0924\u093e\u092f"], ["\u092e", "\u093f\u0932"], ["\u092a", "\u0940"], ["\u0924", "\u0915 "], ["\u0915", "\u093e\u0930"], ["\u091c", "\u093e\u0928"], ["\u092f", "\u0939 "], ["\u0928\u093f", "\u0930\u094d"], ["\u091a", "\u093e"], [" \u0915\u0947 ", "\u092c\u093e"], ["\u0940", " \u0915"], ["\u091c", " "], ["\u0939", "\u093f"], ["\u0938\u094d", "\u0924"], ["\u0928\u0947", " \u0915"], ["\u092a", "\u094d"], ["\u0938", "\u0941"], [" \u0939", "\u094b"], ["\u091a", "\u0941"], ["\u091f", "\u094d\u0930"], ["\u0928", "\u094d"], ["\u0926", "\u0942"], ["\u0935", "\u093f\u0915"], ["\u0935", "\u0940"], ["\u0926", "\u0941"], ["\u092e", "\u093e\u0928"], ["\u092a", "\u0939"], ["\u0937", "\u094d\u091f"], ["\u091c", "\u093f\u0932"], ["\u092f", "\u0941"], ["\u0915", "\u093e"], ["\u093f\u092f", "\u093e\u0964"], ["\u0939\u0948", ", "], ["\u0930\u0939", "\u0940 "], ["\u0902", "\u0927"], ["\u0922", "\u093c"], ["\u0925", "\u093e\u0964"], ["\u092e", "\u093e\u0930"], ["\u0932\u0947", "\u0915\u093f"], ["\u091a", "\u094d"], ["\u0924", "\u094b "], ["\u0935", "\u0947"], [" \u0915\u093e\u0930", "\u094d\u092f"], ["\u0907\u0938", "\u0915\u0947 "], ["\u092a", "\u0930"], ["\u0932", "\u093e "], ["\u092f", "\u093e "], ["\u0939\u0948", " \u0915\u093f "], [" \u0938", "\u093f"], [" \u0915\u0947 \u0932\u093f", "\u090f"], ["\u0915", "\u093e "], ["\u090f", "\u0964"], ["\u0930\u094d", "\u092e"], ["\u092f", "\u093e"], ["\u0930 ", "\u0938\u0947 "], ["\u0907", "\u0928"], ["\u0913", "\u0902"], ["\u0930\u0942", "\u092a"], ["\u092c", "\u094d"], ["\u0926", "\u093f\u092f\u093e "], ["\u0939", "\u094b "], ["\u0930", "\u0941"], ["\u0902", "\u092a"], ["\u093e\u0932", " "], ["\u0921", "\u0940"], ["\u092e", "\u094c"], ["\u092e", "\u0939"], ["\u0935", "\u094d\u092f"], ["\u094b\u0902 ", "\u0928\u0947 "], ["\u092c\u0924\u093e\u092f", "\u093e"], ["\u0947", "\u0917"], ["\u090f", "\u0938"], ["\u092d\u093e", "\u0917"], ["\u0917", "\u0908 "], ["\u0928\u0947 ", "\u0935\u093e\u0932"], ["\u094b\u0902", " \u0915\u093e "], ["\u0902", "\u0924\u094d\u0930"], ["\u0926", "\u094b"], ["\u092e", "\u0940"], ["\u092c", "\u0947"], ["\u091f", "\u093f"], ["\u0924", "\u0915"], [" \u0915", "\u094d\u0937"], ["\u0924", "\u0930"], ["\u093f\u0932", "\u093e"], ["\u0947 ", "\u092e\u0947\u0902 "], ["\u0924\u093e ", "\u0939\u0948\u0964"], ["\u091c\u093f", "\u0938"], ["\u0917\u092f", "\u093e\u0964"], ["\u0935", "\u093e "], [" \u0938", "\u0947"], ["\u0908", "\u0964"], ["\u091f", "\u0947"], ["\u092e", "\u094d"], ["\u0924\u093f", " "], ["\u092d", "\u0940"], ["\u090f", "\u0915"], ["\u0926", "\u0940"], ["\u094b\u0902 ", "\u0938\u0947 "], ["\u0936", "\u093f\u0915"], ["\u092f", " "], [" \u0915\u094b", "\u0930\u094b"], ["\u0926", "\u0930\u094d"], ["\u092c", "\u093f"], ["\u0915\u094d\u0930", "\u092e"], ["\u0926\u094d", "\u0935\u093e\u0930"], ["\u0936", "\u093f"], ["\u092d", "\u093e\u0930"], ["\u0939\u0941", "\u0902\u091a"], ["\u0939\u093e", "\u0902 "], ["\u0930", "\u0916"], ["\u0905\u0928", "\u0941"], ["0", " "], [" \u0915\u0947 ", "\u0938\u093e\u0925"], ["\u092c", "\u0948"], ["\u0915", "\u0930"], ["\u0939", "\u0930"], ["\u094c", "\u0930"], [",", " \u0938"], ["\u0932\u0947\u0915\u093f", "\u0928 "], ["\u0915", "\u0947"], ["\u0939\u0948", "\u0902 "], ["\u092e", "\u093f"], ["\u091c\u093e\u090f", "\u0917"], ["\u092a", "\u094b"], ["\u0917", "\u093e\u0902"], ["\u092e\u093e", "\u092e"], ["\u093e\u0928", "\u0940 "], ["\u0928\u0947 ", "\u092c\u0924\u093e\u092f\u093e"], ["\u0926", "\u094d\u092f"], ["\u0936", "\u0941\u0930"], [" \u0915\u094d\u0937", "\u0947"], ["\u0902", "\u092c"], ["\u0906", " "], ["\u0905\u092a", "\u0928\u0947 "], ["\u0932", "\u0940"], ["\u0909", "\u0938"], ["\u0925", "\u0947\u0964"], ["\u0932", "\u094b"], ["\u092a\u0941", "\u0932\u093f"], ["\u092e", "\u094b"], ["\u092c", "\u0902\u0927"], ["\u0932\u0947", "\u0915\u0930 "], ["\u0925", "\u093e"], ["\u0940\u092f", " "], ["\u0921", "\u093f"], ["\u0916", "\u094d\u092f"], ["\u092f", "\u094b\u0917"], ["\u092a\u0942", "\u0930\u094d"], ["\u0917\u092f", "\u093e "], ["\u0915\u094d", "\u091f"], ["\u091c", "\u093c"], ["\u0924\u0947 ", "\u0939\u0941"], ["\u0938\u094d", "\u092a"], ["\u0924\u094d", "\u0930 "], ["\u092a", "\u0930\u093f"], ["\u092c", "\u093e\u0930"], ["\u0926", "\u093e "], [" \u0939", "\u094b "], ["\u0926\u094d\u0935\u093e\u0930", "\u093e "], ["\u0909\u0928\u094d\u0939", "\u094b\u0902"], ["\u0928", "\u093f\u092f"], ["\u0928", "\u093f\u0915"], ["\u092f", "\u094b"], ["\u0935", "\u0947 "], [" \u092a", "\u0942"], ["\u0925", "\u093e\u0928"], ["\u0928 ", "\u092e\u0947\u0902 "], ["\u0935\u093e\u0930", " \u0915\u094b "], ["\u0935\u093f", "\u0927"], ["\u0916", "\u093e"], ["\u0902", "\u091f"], ["\u093e ", "\u092e\u0947\u0902 "], ["\u0917", "\u0941"], ["\u0917", "\u0930 "], ["\u0917\u092f", "\u093e \u0939\u0948\u0964"], ["\u0935", "\u0948"], ["\u094b\u0902", " \u0915\u094b"], ["\u091a", "\u093e\u0930"], ["\u0924", "\u0947"], ["\u0921", " "], ["\u0926\u094d", "\u0927"], ["\u094d", "\u0930 "], ["\u0928\u0947 \u0915", "\u0939\u093e"], ["\u0936", "\u093e"], ["\u0936", "\u094d\u0930"], ["\u091a", "\u093f"], ["\u0925", "\u093e "], ["\u0930\u094d", "\u0925"], [" \u0939", "\u0940 "], ["\u0939", "\u094b\u0917"], ["\u0915", "\u093e\u0930 "], ["\u0924\u0947 ", "\u0939\u0948\u0902\u0964"], ["\u0928\u0947", " \u0915\u0940 "], ["\u0917", "\u090f "], ["\u093e\u092f", "\u093e "], ["\u0925", "\u0940\u0964"], ["\u0928", " \u0915\u0947 "], ["\u0930\u0939", "\u093e \u0939\u0948\u0964"], ["\u091a", "\u0940"], [" \u0938", "\u093e"], ["\u0930\u0941", "\u092a"], ["\u0936\u0941\u0930", "\u0942"], ["\u0938", "\u0942"], ["\u092f", "\u0942"], ["\u0924", "\u0930\u0939"], ["\u0905", "\u0902"], ["\u092f", "\u0939"], ["\u0909", "\u0924\u094d"], [" \u0938", "\u0941"], ["\u090f", "\u0935"], ["\u0939", "\u0930 "], ["\u091c", "\u094b"], ["\u090f", "\u092e"], ["\u0926\u0947", "\u0916"], ["\u0915\u093f", " "], ["\u0928\u0939\u0940", "\u0902"], ["\u091c", "\u094d"], ["\u092c", "\u0941"], [" \u0915\u094b\u0930\u094b", "\u0928\u093e "], ["\u0926", "\u094c\u0930"], [" \u0938", "\u0915"], ["\u0926\u093f", "\u0928"], [" ", "\u0914\u0930 "], ["\u091c", "\u0940 "], ["\u094b\u0902 ", "\u092a\u0930 "], ["\u091a\u094d", "\u091a"], ["\u091c", "\u0942"], ["\u0936", "\u0941"], ["\u0902", "\u0939 "], [" \u0915", "\u092e"], ["\u0938", "\u093e\u0928"], ["\u093e\u0930", "\u0940"], ["\u091c", "\u092c"], [" \u0915\u0930", "\u0928\u0947 "], ["\u092a", "\u093f"], ["\u0927\u094d\u092f", "\u0915\u094d\u0937"], [" \u092a", "\u0941"], ["\u091f", "\u093e"], ["\u0902", "\u0915"], [" \u0915\u0941", "\u091b"], [" \u0915", "\u0939"], ["\u0930", "\u093f\u0915"], ["\u091f", "\u0940 "], ["\u0921", "\u093e"], ["\u0938", "\u0939"], ["\u0930\u0939", "\u093e "], ["\u092a", " "], ["\u092e\u093e", "\u0930 "], ["\u0915", "\u094b"], ["\u094d\u092f", "\u0942"], ["\u0905", "\u092c "], [" \u0938", "\u092e"], ["\u0913", "\u0902 "], ["\u0907", "\u0928 "], ["\u0939\u0948\u0902", ", "], ["\u0915", "\u093e\u0930\u0940 "], ["\u0927", "\u093e\u0930"], ["\u0935\u0930\u094d", "\u0937"], ["\u0938", "\u093e "], ["\u090f\u0935", "\u0902 "], ["\u0906", "\u0908"], ["\u0917", "\u093f"], ["\u0940", ", "], ["\u0935\u093f", "\u092d\u093e\u0917"], ["\u092b", " "], ["\u092a", "\u0940 "], ["\u0921", "\u0949"], ["\u092b", "\u093f"], ["\u0942", "\u0932"], ["\u0924", "\u094b"], ["\u0939", "\u093e\u0932"], ["\u0917", "\u0908\u0964"], ["\u091c", "\u0941"], ["\u094d\u0930", "\u0947"], [" \u092a", "\u0930"], ["\u091c\u093e", "\u0902\u091a"], ["\u0930 ", "\u092a\u0930 "], ["\u0924", "\u093e\u0932"], ["1", "9"], ["\u092f", "\u0930"], [" \u0939", "\u0941"], ["\u091c", "\u0948"], ["\u092c", "\u0922\u093c"], ["\u0902", "\u0939"], ["\u092a", "\u0941\u0930"], ["\u0936\u093f\u0915", "\u094d\u0937"], ["\u0936", "\u0928"], ["\u0936", "\u0947"], ["\u092a", "\u093e\u0932"], ["1", "0"], ["\u0924\u0940 ", "\u0939\u0948\u0964"], [" \u0915\u0930", "\u0928\u093e "], ["\u091c", "\u0947"], ["\u0938", "\u094b"], ["\u0936", "\u093e\u092e"], ["\u091c", "\u094b "], ["\u092e", "\u0948"], ["\u0935\u093e", "\u0930 "], [" \u0915\u0947 \u092c\u093e", "\u0926 "], [" \u0938", "\u0930"], ["\u0930\u0939\u0947 ", "\u0939\u0948\u0902\u0964"], [" \u092a", "\u0939"], ["\u092a\u0939", "\u0932\u0947 "], ["\u0937", "\u094d"], ["\u0902\u0917", "\u0947\u0964"], [" \u092a", "\u0930\u093f"], ["\u0939\u0940", "\u0902 "], ["\u0916", "\u0941"], ["\u0930\u093e", "\u092e"], ["\u0932\u0917", "\u093e"], ["\u093f\u0932", "\u094d"], ["\u0917", "\u093e"], ["\u091a", " "], ["\u0902\u0926", "\u094d\u0930 "], ["\u092a", "\u0939\u0941\u0902\u091a"], ["\u091a", "\u094c"], ["\u0928\u0947 \u092c\u0924\u093e\u092f\u093e", " \u0915\u093f "], ["\u0930", "\u093e "], ["\u093e\u0932", "\u092f"], [" \u092a", "\u093e"], ["\u0930\u094d", "\u091f"], [" \u0915\u093e", "\u092e"], ["\u092d\u093e", "\u0935"], ["\u091b", "\u093e"], ["\u0932", "\u0949"], ["\u0940", " \u0915\u0947 "], ["\u091a", "\u0932"], ["\u0935\u093e", "\u0938\u094d\u0925"], ["\u0909\u0928", "\u0915\u0947 "], ["\u0917\u093e\u0902", "\u0935"], ["\u091a\u093e", "\u0939\u093f"], ["\u091c", "\u0947 "], ["\u0917", "\u094b"], ["\u092c", "\u0928"], ["\u0930\u0939\u0940 ", "\u0939\u0948\u0964"], ["\u0937\u094d\u091f", "\u094d\u0930"], ["\u092e", "\u0902\u0924\u094d\u0930"], ["\u0932\u093f", "\u090f "], ["\u091c\u094d", "\u091e"], ["\u0928\u0947 \u0935\u093e\u0932", "\u0947 "], ["\u0906", "\u0930\u094b"], [" \u0915\u093f", "\u090f "], ["\u092d\u093e\u0930", "\u0924"], ["\u0935\u094d\u092f", "\u0935"], ["\u093e\u0928", "\u093e "], ["\u0936", "\u0940"], ["\u0914", "\u0930"], ["\u092c\u093e", "\u0930 "], ["\u092f", "\u0947 "], ["5", " "], ["\u093f\u0932", " "], ["\u0909\u0928\u094d\u0939", "\u0947\u0902 "], [" \u0915", "\u093f\u092f\u093e\u0964"], ["\u0936", "\u093e\u0938"], ["\u092c\u093e", "\u0924"], ["\u0926", "\u094b "], [" \u0915", "\u0940"], ["\u0916", "\u0947"], ["\u092a\u0941\u0932\u093f", "\u0938 "], ["\u0930\u0940", "\u091c"], ["\u0916", " "], ["\u092d", "\u0942"], ["\u0924", "\u0930 "], ["\u093e\u0928", "\u0947 "], ["\u0936", " "], ["\u092c\u093e", "\u0926"], [" \u0915\u0941", "\u092e\u093e\u0930 "], ["\u092c", "\u0938\u0947 "], [" \u0915", "\u0948"], ["\u092b", "\u094d"], ["\u0906", "\u0930"], ["\u0902\u0926", "\u094d\u0930"], ["\u092c", "\u094b"], ["\u0924", "\u0948"], ["\u0917\u094d\u0930", "\u093e\u092e"], [" \u0938", "\u0940"], ["\u093e", ", "], [" \u0915\u0947 \u092c\u093e", "\u0926"], ["\u0938", " \u0915\u0947 "], [" \u0915\u093e", "\u0947 "], ["\u0939\u0948", "."], ["\u091c", "\u0917"], ["\u0935", "\u0939 "], [" \u0915\u094d\u0937\u0947", "\u0924\u094d\u0930"], ["\u0928\u0947 ", "\u0938\u0947 "], ["\u0924\u0947 \u0939\u0941", "\u090f "], ["\u0938\u094d", "\u0915"], ["\u0947", "\u091f"], ["\u0938\u094d\u0925", "\u093e"], [" \u092e", "\u093f\u0932"], ["\u0926", "\u093e\u0928"], ["\u092e\u093e", "\u0902\u0917"], ["\u0917", "\u0930"], [" \u0915\u0947", " \u0915\u093e\u0930"], ["\u092a\u0941", "\u0930 "], ["\u0935", "\u0947\u0936"], ["\u0938", "\u092d\u0940 "], ["\u0905\u092a", "\u0928\u0940 "], ["\u0926\u0947\u0936", " "], ["\u092c", "\u0902\u0926"], ["\u091c\u093f", "\u0928"], ["\u0924", "\u0941"], ["\u0930", "\u0923"], [" \u0938", "\u0939"], ["\u092e", "\u093e "], ["\u0917\u0908 ", "\u0939\u0948\u0964"], ["\u0927", "\u093e\u0928"], [" \u0915", "\u0930\u093e"], ["\u091c\u093f\u0932", "\u093e "], ["\u091c\u093e ", "\u0938\u0915"], ["\u092d", "\u0947"], ["\u0916", "\u093f\u0932\u093e"], ["\u0938\u093e", "\u092e"], [" ", "\u0928\u0947 "], ["\u094d\u0930", "\u093e"], ["\u0915\u094d", "\u0924 "], ["\u0930\u093e\u091c", "\u094d\u092f"], ["\u094d\u092f\u093e", "\u0926\u093e "], [" \u0915\u0947 ", "\u092a\u094d\u0930"], ["\u0915", "\u0941"], ["\u0928", " \u0915\u0940 "], [" \u0915\u093f", "\u0938\u0940 "], [" \u0915\u0947 ", "\u0905"], ["\u0935\u093f", "\u0926\u094d\u092f"], ["\u0924", "\u094d\u092f"], ["\u092b", "\u093e"], [" \u0915\u093f", "\u0938\u093e\u0928"], ["\u0935\u093e", "\u0938\u0940 "], ["\u091c", "\u0932"], ["\u0932", "\u093f\u092f\u093e "], ["\u0909\u0928\u094d\u0939\u094b\u0902", "\u0928\u0947 "], ["\u0930", "\u0947 "], ["\u0907", "\u0902"], ["\u0926\u094b", "\u0928"], ["\u0906", "\u092a"], [" \u0915\u094b", "\u0908 "], ["\u0910", "\u0938\u0947 "], ["\u091c\u093e\u090f\u0917", "\u093e\u0964"], ["\u0930\u0942\u092a", " \u0938\u0947 "], [" \u0938", "\u093e\u0932"], ["\u0924 ", "\u092e\u0947\u0902 "], ["\u0928", "\u094b"], ["\u092a", "\u093e\u0930"], ["\u094d", "\u0921"], ["\u0936\u094d", "\u0935"], ["\u0939\u0948", " \u0915\u093f"], ["\u0930\u0940", "\u0915\u094d\u0937"], ["\u0935\u093f\u0915", "\u093e\u0938"], ["\u0918", "\u091f"], ["\u092c\u0948", "\u0920"], ["\u091c\u093e", "\u0930 "], ["\u0939", "\u092e"], ["\u092d", "\u093f"], ["\u0924\u094d", "\u0935"], ["\u092a\u093e", "\u0938 "], ["\u0935", "\u094d\u092f\u093e"], ["\u0938\u0902", "\u0915\u094d\u0930\u092e"], ["\u0935\u093e\u0932", "\u0947 "], ["\u092e", "\u0940 "], ["\u092c", "\u0926"], ["\u0935\u093e", "\u0908"], ["\u0917", " "], ["\u0928", "\u093f\u092f\u093e"], ["\u092c", "\u0939\u0941"], ["\u092c\u093e", "\u0926 "], ["\u0939\u0941", "\u0908 "], ["\u092f", "\u0939\u093e\u0902 "], ["\u0921\u093c", " "], ["\u0928\u093f\u0930\u094d", "\u092e\u093e"], ["\u0941\u0930", "\u0941"], ["\u0926", "\u093f\u092f\u093e\u0964"], ["\u092b", "\u093c"], ["\u0938\u094d", "\u0935"], ["\u0921\u093c", "\u0940 "], ["\u092f\u094b", "\u091c"], [" \u0915", "\u0949"], ["\u0905", "\u0935"], ["\u092e", "\u0939\u093e"], ["\u0924\u0948", "\u092f"], ["\u0938\u094d\u092a", "\u0924\u093e\u0932"], ["\u093f\u092f", "\u094b\u0902 \u0915\u094b "], ["\u0926\u0930\u094d", "\u091c"], ["\u0902\u0917", " "], ["\u092b", "\u094b"], ["\u0915\u094d", "\u0924"], ["0", "0"], ["\u092c", "\u091a\u094d\u091a"], ["\u0907\u0938", "\u0938\u0947 "], ["-", " "], [" \u0915\u0947 \u0938\u093e\u0925", " "], ["\u091a", "\u093e\u0930 "], ["\u0930\u093f", "\u092a\u094b"], ["\u091a", "\u093e\u0932"], [" \u092a\u0941", "\u0932\u093f"], ["4", " "], ["\u0938", "\u0930 "], ["\u0936", "\u094b"], ["\u0909", "\u0938\u0915"], ["\u0924", "\u0939"], ["\u092a\u094d\u0930", "\u0924\u093f"], ["\u0909\u0938", "\u0915\u0947 "], ["\u0915", "\u093e\u0928"], ["\u092a", "\u0947"], ["\u0935", "\u0939\u0940\u0902 "], [" \u0915\u0947 ", "\u0906"], ["\u092b", "\u0948"], ["\u092c", "\u0930"], [" \u0915", "\u0940 \u0915"], ["\u0907", "\u0932\u093e"], ["\u093e\u092f", "\u0924"], ["1", "2"], [" \u0915\u093e\u0930", "\u094d\u0930"], ["\u0928", "\u0917\u0930 "], ["\u093f\u092f", "\u094b\u0902 \u0915\u0947 "], ["\u0928\u0947 \u0915\u0939\u093e", " \u0915\u093f "], ["\u0917", "\u0924"], ["\u0917", "\u0947"], ["\u092e\u093e", "\u091c"], ["\u0935\u093e", "\u0939"], ["\u092e\u093e\u092e", "\u0932\u0947 "], ["\u091a", "\u0947"], [" \u0915", "\u094d"], [" \u0915", "\u0908 "], [" \u0915\u0930\u0928\u0947", " \u0915\u0947 \u0932\u093f\u090f "], ["\u0935\u093e", "\u092f\u0930"], [" \u092a\u094d\u0930", "\u0924\u093f"], [" \u0915", "\u0930\u094d\u092e"], ["\u0930\u093e", "\u0937\u094d\u091f\u094d\u0930"], ["\u0917", "\u090f\u0964"], ["\u0926\u093f", "\u0928 "], ["\u0947\u0902", "\u091f"], [" \u092c", "\u091c\u0947 "], ["\u092a\u094d\u0930", "\u093e"], ["\u0932\u094b\u0917", " "], [", ", "\u0905"], ["\u0928", "\u0935"], ["\u0916", "\u0902\u0921"], ["\u0938", "\u092c\u0938\u0947 "], ["\u091b", "\u094b"], ["\u0932", "\u0915\u094d\u0937"], [":", " "], [" \u092e", "\u0941"], ["\u0926\u094c\u0930", "\u093e\u0928 "], ["\u0915", "\u0930\u094d"], ["\u092a", "\u0948"], ["\u0938\u094d\u0925", "\u093e\u0928"], [" \u0938\u094d", "\u0925"], [", ", "\u0914\u0930 "], ["\u0902\u0926", "\u093f"], ["\u0905\u0927\u093f\u0915", " "], ["\u0938", "\u094d\u092f"], ["\u0942", " "], ["\u0939\u0948 ", "\u0914\u0930 "], ["\u0902", "\u0964"], ["\u091c", "\u092f"], ["\u091c\u093f", "\u091f\u093f"], ["\u092c\u093e", "\u0907"], [" \u092a", "\u0939\u0941\u0902\u091a"], ["\u0928\u0947", " \u0915\u0947 \u0932\u093f\u090f "], ["\u091c", "\u094d\u092f\u093e\u0926\u093e "], ["\u0935\u093e\u0938\u094d\u0925", "\u094d\u092f"], [",", " \u092a"], ["\u092e\u0902\u0924\u094d\u0930", "\u0940 "], ["\u0930", "\u0935\u093f"], ["\u0936", "\u0928 "], [" \u0915", "\u094d\u092f"], ["\u094b", "\u0932"], ["\u0924", "\u0925\u093e "], ["\u092b", "\u0940"], ["\u091a\u094d", "\u091b"], ["\u0921\u093c", "\u093e "], ["\u0938", "\u0930\u094d"], ["\u0907\u0938", "\u092e\u0947\u0902 "], ["\u0902\u0917", "\u094d\u0930\u0947"], [" \u0915\u0941\u091b", " "], ["\u091a\u0941", "\u0928\u093e"], ["\u0928\u0947 ", "\u092a\u0930 "], ["\u0930", " \u0915\u0947 "], [" \u0915\u094b ", "\u0932\u0947\u0915\u0930 "], ["\u0937", " "], ["\u0909\u0928", "\u0915\u0940 "], ["\u092c", "\u0928\u093e"], ["\u0941\u0930", "\u0915\u094d\u0937"], ["\u092e", "\u0924"], ["\u092e", "\u093e\u0932"], ["\u091c\u093e\u0928", "\u0915\u093e\u0930\u0940 "], ["\u0927", "\u093f"], ["\u092f\u0941", "\u0935"], ["\u0938\u093e", "\u0930 "], [" \u0938", "\u094d\u091f"], ["\u091c", "\u093e\u0928\u0947"], ["\u0935", "\u0940 "], ["\u091c\u093f\u0938", "\u092e\u0947\u0902 "], ["\u0935", "\u093e\u0928"], [" \u092a\u094d\u0930", "\u093e"], [" \u092e", "\u0939"], ["\u0935", "\u0928"], ["\u092d", "\u093e\u0930\u0940 "], ["\u0938", "\u0926"], ["\u092e", "\u093f\u0915"], ["\u0921\u093c", "\u0947 "], ["\u091c", "\u0930\u0942"], [" \u0938\u093f", "\u0902\u0939 "], ["\u0926", "\u093e\u0930 "], ["\u0926\u0942", "\u0938\u0930"], ["0", "0"], [" \u0915\u0930 ", "\u0938\u0915"], ["1", "5"], ["\u0902\u0917", "\u0932"], ["\u0940", " \u0915\u0940 "], ["\u0928\u0947", " \u0915\u093e "], ["\u092a", "\u0902\u091a"], ["\u092e", "\u0926"], [" \u0915\u0930", "\u0940"], ["\u0932\u094b\u0917", "\u094b\u0902 \u0915\u094b "], ["\u090f", "\u0928"], ["\u0915\u094d", "\u0924\u093f"], ["\u0917\u093f", "\u0930"], ["\u0949", "\u091c\u093f\u091f\u093f"], ["\u0909", "\u0938\u0947 "], ["\u0906", "\u0935"], ["\u091c", "\u092c "], ["\u0928", "\u0941"], ["\u0924", "\u093e\u0930"], ["\u0924", "\u094d\u092f\u093e"], ["\u0935", "\u0939"], ["\u0936", "\u0939\u0930"], [" \u0915", "\u0902\u092a"], [" \u0915", "\u0940\u0964"], ["\u0938\u093f", "\u0902\u0939 "], ["\u092e\u0941", "\u0916\u094d\u092f"], ["\u0938 ", "\u092e\u0947\u0902 "], ["\u0915 ", "\u092e\u0947\u0902 "], ["\u0924", "\u093f\u0915"], ["1", " "], ["\u090f", "\u0902 "], ["\u0921", "\u0947"], ["\u0940", "\u0923"], ["\u0936", "\u094d\u092f"], ["\u0924\u0940", "\u0928 "], ["\u0926", "\u0947 "], ["\u093f\u092f", "\u094b\u0902 "], ["\u0928\u093f", "\u0935\u093e\u0938\u0940 "], ["3", " "], ["\u0905\u0928", "\u094d\u092f"], ["\u0918", "\u0930 "], ["\u0937", "\u0923"], ["\u0939", "\u0942"], ["\u0935\u093e", "\u0938"], ["\u0906", "\u0908 "], ["\u0930\u094b", "\u0927"], ["\u093f", "\u0924\u093f"], ["\u091f", "\u094d"], ["\u0924\u0947 \u0939\u0941", "\u090f"], ["\u0924\u093e", "\u0930 "], ["\u0906", "\u0926\u093f"], ["\u0924\u0947 ", "\u0939\u0948\u0902"], [" \u0915\u093f\u092f\u093e ", "\u0939\u0948\u0964"], ["\u0905", "\u0938\u094d\u092a\u0924\u093e\u0932"], ["\u0915\u094d\u091f", "\u0930 "], ["\u0938", "\u0932"], [" \u0915\u093e\u0930\u094d\u0930", "\u0935\u093e\u0908"], ["\u093f\u092f\u093e", "\u0902 "], ["\u0926\u094b\u0928", "\u094b\u0902 "], ["\u092f\u093e", "\u0926"], [" \u0915\u0930\u0928\u0947", " \u0915\u0940 "], ["\u0905", "\u092d\u0940 "], ["\u0938\u0902", "\u0916\u094d\u092f"], [" \u0915\u0930 ", "\u0926\u093f\u092f\u093e "], ["\u0917", "\u0902"], ["\u091b", "\u0932\u0947 "], ["\u0930\u094d", "\u091a"], ["\u0932\u0949", "\u0915"], ["\u0939\u0941", "\u0906 "], ["\u0928", "\u094c"], ["\u091c", "\u0928 "], ["\u091c", "\u093e\u0930"], ["\u0917", "\u0941\u0930\u0941"], ["\u0947\u0917", "\u093e\u0964"], ["\u092e\u0941", "\u0916"], ["\u0938", "\u0948"], [" \u0915\u093f\u092f\u093e ", "\u0917\u092f\u093e\u0964"], ["\u0938\u0942", "\u091a"], ["\u093e\u0932", "\u0940 "], ["\u091c", "\u0930 "], ["\u092a", "\u093e "], ["\u092b\u093f", "\u0930 "], [" \u092a\u0939", "\u0932\u0947 "], [" \u0938", "\u094b"], ["\u0924\u093e", "\u0913\u0902"], ["2", " "], ["\u0924\u094d", "\u0924"], ["\u0924\u0947 ", "\u0939\u0948\u0902 "], ["\u091f\u094d\u0930", "\u0947"], ["\u0932\u093e", "\u0916 "], ["\u092e", "\u0930\u0940\u091c"], ["\u092d", "\u094b"], ["\u092e", "\u0902\u0921"], ["\u093f\u0932", "\u093e "], [" \u0938\u093f", "\u0902\u0939"], ["\u0928\u093f\u0930\u094d\u092e\u093e", "\u0923"], [" \u0939", "\u091c\u093e\u0930 "], ["\u0906", "\u0917"], ["\u095c", "\u0940 "], ["\u094b\u0902", " \u0915\u0947 \u0932\u093f\u090f "], ["\u0928", " \u0938\u0947 "], ["\u093e\u0930\u094d", "\u0925"], ["\u0947", "\u0902\u0917\u0947\u0964"], ["\u0905", "\u0932\u0917"], ["\u0926", "\u0930"], ["\u0935\u0930\u094d", "\u0924"], ["\u0926\u094c\u0930", "\u093e\u0928"], [" \u0915\u0941", "\u092e\u093e\u0930"], ["6", " "], ["\u0932", "\u092c\u094d"], ["\u0935\u093f\u0915", "\u093e"], ["\u0938", " \u0915\u0940 "], ["\u091c\u0942", "\u0926 "], ["\u091f", "\u0930 "], ["\u0938\u093f", "\u0902\u0939"], ["\u0926\u093f", "\u090f "], ["\u093e", " \u0915\u0947 "], ["\u094d\u0930", "\u0940"], ["\u0907\u0938", "\u0940 "], ["\u092b", "\u0940 "], ["\u0935\u093f", "\u0936\u0947"], ["\u093e ", "\u0914\u0930 "], ["\u0928\u093e", "\u092e"], ["\u092b", "\u0932"], ["\u0916", "\u0930\u0940"], ["\u0932\u093e", "\u092d"], ["\u0909\u092a", "\u0932\u092c\u094d"], ["\u0930\u0941\u092a", "\u090f"], ["\u0935", "\u0930"], ["\u0928", "\u093e\u0930"], ["\u0924\u094d", "\u0930 \u092e\u0947\u0902 "], ["\u095c", " "], ["8", " "], ["\u0927\u094d\u092f\u0915\u094d\u0937", " "], ["\u092a\u094d", "\u0924"], ["\u0938\u0930", "\u0915\u093e\u0930"], [" \u0905", "\u092a"], [" \u0915\u094b", " \u0938"], ["\u0909", "\u0920"], ["\u0926", "\u093f\u0932\u094d"], ["\u0947", ", "], ["\u0927", "\u093e\u0930 "], ["\u0932\u0947\u0915\u093f", "\u0928"], ["\u0926\u0941", "\u0915\u093e\u0928"], ["\u093f\u092f", "\u094b\u0902 \u0915\u0940 "], ["\u0915", "\u0943"], ["\u0921\u0949", "."], [" \u0915\u0930", "\u094b"], ["\u0926", "\u093e\u092f"], ["\u092d\u093e", "\u091c"], ["\u0905\u0928\u0941", "\u0938\u093e\u0930 "], ["\u092e", "\u093e\u0928 "], ["\u0935", "\u0930 "], [" \u0915\u0930\u0940", "\u092c "], ["\u092a\u0941\u0932\u093f\u0938 ", "\u0928\u0947 "], ["\u092e\u0939", "\u093f\u0932\u093e"], ["\u0930\u0941\u092a", "\u090f "], ["\u0917\u094d\u0930\u093e\u092e", "\u0940\u0923"], ["\u0939\u0941", "\u090f "], [" \u0915\u0940 ", "\u0913"], ["\u0927", "\u0940"], ["\u091c\u093e ", "\u0930\u0939\u093e \u0939\u0948\u0964"], ["\u090f", "\u091a"], ["\u0930\u094d", "\u091f "], ["\u091b\u093e", "\u0924\u094d\u0930"], ["\u092c\u093e\u0930", "\u0947 \u092e\u0947\u0902 "], [" \u0915", "\u0943"], ["\u0915\u0930", "\u0923"], ["\u092c\u0940", "\u091a"], [" \u0915\u093e", "\u0902\u0917\u094d\u0930\u0947"], ["\u0917", "\u094d"], ["\u091a\u093e\u0939\u093f", "\u090f\u0964"], ["\u0905", "\u092c"], ["\u091c\u093f\u0938", "\u0938\u0947 "], ["\u0928\u0939\u0940\u0902 ", "\u0939\u094b"], ["\u0938\u094d\u0925", "\u093f\u0924 "], ["\u0925", "\u0940"], [" \u0915", "\u094d\u0930"], ["1", "1"], ["\u0918", "\u094b"], ["\u0926", "\u0940\u0964"], [" \u0939", "\u093e"], ["\u0902", "\u0938"], ["\u092c", "\u0939 "], ["\u0932", "\u0948"], ["\u0909\u092a\u0932\u092c\u094d", "\u0927"], ["\u0915", "\u0940"], ["\u092e\u0947", "\u0930\u093f\u0915"], ["1", "1"], ["\u090f", "\u0915\u094d"], ["\u0930\u0942\u092a", " \u092e\u0947\u0902 "], ["\u0935", "\u091c"], ["3", "0"], ["\u0906", "\u090f "], ["\u0930\u0947", "\u0932"], [" \u092a", "\u093e\u0930"], ["\u092c", "\u0939"], ["\u0935\u093e\u0932", "\u0940 "], ["\u093e\u0928\u0947", " \u0915\u0947 \u0932\u093f\u090f "], ["\u0947\u0902", "\u0964"], ["\u0905", "\u0932\u093e"], ["\u091a", "\u093f\u0915"], ["\u0926\u094d\u092f", "\u094b\u0917"], ["\u093f\u092f", "\u094b"], [" \u0939", "\u094b\u0917"], ["\u092a\u093e", "\u0926"], ["\u093f\u092f", "\u094b\u0902 \u0928\u0947 "], ["\u0926", "\u093e\u0930"], ["\u0928", "\u094d\u092f"], [" \u0915", "\u092e "], ["\u091c\u093e\u0928", "\u0947 "], ["\u0932\u094b\u0917", "\u094b\u0902 \u0915\u0940 "], ["\u0905\u0928", "\u094d\u092f "], ["\u0936\u093e\u092e", "\u093f\u0932 "], ["\u0938\u092e", "\u092f"], ["\u0907\u0938", "\u0915\u093e "], ["\u0909", "\u0928 "], ["\u0924\u094d", "\u092e"], ["\u0932\u0949\u0915", "\u0921\u093e"], ["\u0936", "\u093e\u0902"], ["\u0907", "\u0938\u0947 "], ["\u092e", "\u0928"], [" \u0915\u094b\u0930\u094b", "\u0928\u093e"], ["\u092e", "\u0943"], ["\u0932", " \u0915\u0947 "], ["\u0939", "\u092e "], ["\u0928\u0947 \u092c\u0924\u093e\u092f\u093e", " \u0915\u093f"], ["\u0939", "\u0947"], [" \u0915\u093e ", "\u0906"], [" \u0938", "\u092d\u0940 "], ["\u0905\u0927\u093f\u0915", "\u093e\u0930"], ["\u0918", "\u0930"], ["\u0935\u0947", "\u0926"], ["\u0928\u0947", " \u0915\u0947 "], [" \u092a", "\u0940"], ["\u091c", "\u0939\u093e\u0902 "], ["\u0938\u0902", "\u092c\u0902\u0927"], ["\u0915\u0947 ", "\u092a\u0930 "], ["\u0924 ", "\u0939\u094b "], ["\u0935\u093f\u0915\u093e", "\u0938 "], ["\u0936", "\u0939"], ["\u094b\u0902 ", "\u0914\u0930 "], ["\u0909\u092a", "\u092f\u094b\u0917"], ["\u091f", "\u093e "], ["\u092c\u0924\u093e\u092f", "\u093e "], ["\u092d", "\u093f\u092f"], ["\u0938\u0930", "\u0915\u093e\u0930 "], ["\u0907\u0938", "\u0915\u0940 "], [" \u092a\u0941\u0932\u093f", "\u0938 "], ["\u091a", "\u094b"], ["\u092a", "\u0921\u093c"], ["\u092d", "\u0930"], ["\u0917\u093f\u0930", "\u092b\u094d"], [" \u0915\u0947 \u0915\u093e\u0930", "\u0923 "], ["\u0926\u0942", "\u0930"], ["\u090f", "\u092e "], ["\u0935", "\u0932 "], [" \u092a\u0942", "\u0930\u094d"], ["\u091c\u093e\u090f\u0917", "\u0940\u0964"], ["\u0939\u094b\u0917", "\u093e\u0964"], ["7", " "], ["\u091f", "\u094b"], ["\u093e\u0928\u0947", " \u0915\u0940 "], ["\u0935", "\u0943"], ["\u0937", "\u093f"], ["\u0928\u093f", "\u0935\u0947\u0936"], ["\u092e\u0947\u0902", ", "], ["\u0930\u093f\u092a\u094b", "\u0930\u094d\u091f"], ["\u092c", "\u095d"], [" \u0915\u0947", "\u0902\u0926\u094d\u0930"], ["\u0928\u0939\u0940\u0902 ", "\u0939\u0948\u0964"], ["\u0906", "\u0930\u094d\u0925"], ["\u0917\u092f\u093e ", "\u0925\u093e\u0964"], ["\u0932\u0917", "\u092d"], ["\u091a\u0941", "\u0915\u0947 "], ["\u092c", "\u0930 "], ["\u0930", "\u0924 "], ["\u0917", "\u0948"], ["\u091a", "\u0932 "], ["\u0938\u093e\u092e", "\u0928\u0947 "], ["\u092c", "\u091a"], ["\u0928\u0947 \u0915\u0939\u093e", " \u0915\u093f"], ["\u0906\u0935", "\u0936\u094d\u092f"], [" \u092e", "\u094c"], ["\u091a\u0941\u0928\u093e", "\u0935"], ["\u0935\u093e\u0930", " \u0915\u094b"], ["\u0940 ", "\u092e\u0947\u0902 "], ["\u092e", "\u093e\u0930\u094d"], ["\u092c\u0939\u0941", "\u0924 "], [" \u0915\u0940 ", "\u0939\u0948\u0964"], ["\u0939\u0948", " \u091c"], [" \u0915\u093e", "\u092b\u0940 "], [" \u0938", "\u093e\u092e"], ["\u0909", "\u092e\u094d"], ["\u0916", "\u093f"], ["\u091f", "\u0947 "], ["\u0924", "\u0930\u0940"], ["\u0932", " \u092e\u0947\u0902 "], ["\u095c", "\u093e "], ["\u091f\u0940", "\u092e "], ["\u0902\u092c", "\u0930 "], ["\u092a", "\u0930\u094d"], ["\u0930\u093e", "\u0936\u093f"], ["5", "0"], ["\u093e\u0930", "\u093e"], ["\u092d", "\u0940 \u0915"], ["\u0936\u0941", "\u0915\u094d\u0930"], [" \u0905", "\u0927\u093f\u0915"], ["\u0924\u093e", "\u0913\u0902 "], ["\u0925", "\u0940 "], ["\u092e\u0947\u0902", " \u0915"], ["\u0918", "\u093e"], ["\u0938\u093e\u0925", " \u0939\u0940 "], ["\u0930\u094b", "\u0921"], ["\u0909\u0924\u094d", "\u092a\u093e\u0926"], ["\u091c\u093e\u0928", "\u093e "], ["\u0925", " "], ["\u0927", "\u0928"], ["\u092a\u093e", "\u0938"], ["\u092e\u0926", "\u0926"], ["\u093f", "\u0936"], ["\u091c\u093f\u0932", "\u0947 \u092e\u0947\u0902 "], ["\u0924\u093e", "\u092c"], ["\u091c\u093e", "\u0924\u093e "], ["\u092a", "\u0915"], ["\u0936", "\u0928\u093f"], ["\u092b", "\u0947"], ["\u092c", "\u0942"], ["\u092c\u0941", "\u0927"], ["\u0918\u091f", "\u0928\u093e"], ["\u091c\u093f", "\u0938\u0915"], ["\u0928", "\u090f "], ["\u092f\u0941", "\u0915\u094d\u0924 "], ["\u0932", "\u093e\u0932"], [" \u0938\u0930", "\u0915\u093e\u0930"], ["\u0935", " \u092e"], ["\u0925\u093e\u0928", "\u093e"], ["\u091c", "\u093e\u0930\u0940 "], ["\u0924", "\u094c"], ["\u0947\u0917", "\u0940\u0964"], ["\u092e", "\u0930"], ["\u093e\u092f", "\u0915 "], ["\u0930\u094d", "\u0921"], ["\u0939", " \u0938\u0947 "], ["\u0939", "\u093e "], ["\u0930", "\u094b\u0917"], ["\u0935\u094d\u092f\u0935", "\u0938\u094d\u0925\u093e"], ["\u0936", "\u0930\u094d"], ["\u091c\u093f", "\u0924"], ["\u092a\u094d", "\u0924 "], ["\u091f\u0940", "\u092e"], ["\u092a\u093f", "\u091b\u0932\u0947 "], ["\u092a\u094d\u0930", "\u0936\u093e\u0938"], ["\u092c\u0940", "\u091a "], ["\u0902", "\u0915 "], ["\u0916", "\u093c"], ["\u092a", "\u091f"], [" \u0915\u0947 \u0915\u093e\u0930", "\u0923"], ["\u0928 ", "\u0928\u0947 "], ["20", "1"], ["\u0928", ", "], ["\u0926\u0941", "\u0928\u093f\u092f\u093e"], ["\u0928\u0947 ", "\u092e\u0947\u0902 "], ["\u092c\u0947", "\u0939"], ["\u0930", ", "], [" \u0938", "\u0948"], ["\u0928\u0947 \u0935\u093e\u0932", "\u0940 "], ["\u092c", "\u0940 "], [" \u0915\u0930\u0928\u0947", " \u0915\u093e "], ["\u0930", "\u0915\u094d\u0937"], [" \u0938\u0930", "\u0915\u093e\u0930 "], ["\u0932\u093e", "\u0916"], [" \u0915\u0939", "\u093e "], [" \u0938\u0902", "\u092c\u0902\u0927"], ["\u0917", "\u0924 "], ["\u0917", "\u0930\u0940"], ["\u0928", " \u0915\u0930"], ["\u092f\u093e", "\u0924\u094d\u0930"], ["\u0930\u094b", "\u0915"], ["\u0939\u093e\u0932", "\u093e\u0902"], [" \u092a", "\u0902\u091a"], ["\u092b", "\u0930"], ["\u092c", "\u093e\u0932"], ["\u092d", "\u0941"], ["\u0936\u094d", "\u091a"], ["\u0928", " \u0915\u094b "], ["\u0924\u0947 ", "\u0939\u0948\u0902, "], ["\u0932", "\u094c"], ["\u0935", "\u0928 "], ["\u0935\u093f", "\u0930\u094b\u0927"], [" \u0915\u093e", "\u092e "], ["\u092c\u093e", "\u0924 "], ["\u092e\u093e\u092e\u0932\u0947 ", "\u092e\u0947\u0902 "], ["\u0935", "\u094b"], ["\u0938\u093e\u0925", " "], ["\u0917\u090f ", "\u0939\u0948\u0902\u0964"], ["\u092a", "\u0924\u094d"], ["\u0936", "\u093e "], ["\u0947", "\u0902\u0917"], ["\u0947\u0936", " "], [" \u0915\u094d\u0937\u0947", "\u0924\u094d\u0930 \u092e\u0947\u0902 "], ["\u0924\u094d\u0935", "\u092a\u0942\u0930\u094d"], ["\u093f", "\u0924\u094d"], [")", " "], [",", " \u092a\u094d\u0930"], ["\u0907\u0938", "\u0932\u093f\u090f "], ["\u092c\u093f", "\u091c"], ["\u0935\u093f", "\u0936\u094d\u0935"], ["\u0926\u0947\u0936", " \u092e\u0947\u0902 "], ["\u0917", "\u0924\u093f"], ["\u092e\u093e", "\u0927\u094d\u092f"], [" \u0938\u094d", "\u0915"], ["\u091c\u093e", "\u0924\u093e \u0939\u0948\u0964"], ["\u0938\u0902\u0915\u094d\u0930\u092e", "\u0923"], ["\u0905", "\u093e"], ["\u0907", "\u0902\u0921"], ["\u0901", " "], ["\u0909\u0928", "\u0915\u093e "], ["\u0924\u0948\u092f", "\u093e\u0930"], ["\u0928", "\u093f\u092f\u093e "], ["\u0940", " \u0915\u093e "], ["\u0909\u0938\u0915", "\u0940 "], ["\u0930\u093e", "\u092c"], ["\u0930\u093e", "\u0939"], ["\u0936\u093e\u092e", "\u093f\u0932"], [" \u092e", "\u093e\u0930\u094d"], ["\u091c\u092c", "\u0915\u093f "], ["\u092e", "\u0902\u0917\u0932"], ["\u092f", "\u093e\u0938"], ["\u0938", "\u0941\u0930\u0915\u094d\u0937"], ["\u0938\u094d", "\u0924\u093e"], ["\u0926\u0942\u0938\u0930", "\u0947 "], ["\u0930\u093e", "\u092f"], ["\u0918", "\u0902\u091f"], ["\u092e", "\u093e\u0930\u0940 "], ["\u092e\u094c", "\u0915\u0947 \u092a\u0930 "], ["\u0938", "\u093e\u0930"], ["\u0947", " \u0915\u0947 "], ["\u094d\u091f", "\u0940 "], ["\u092a\u0941\u0932\u093f", "\u0938"], [" \u0915\u0947 ", "\u0924\u0939"], [" \u092e", "\u0948"], [" \u092e", "\u093f"], ["\u0935\u093f", "\u0936\u094d"], ["\u0924", " \u0915\u0947 "], ["\u092a", "\u093e\u0928\u0940 "], ["\u091a\u093f\u0915", "\u093f\u0924\u094d"], ["\u0925\u093e", ", "], ["\u0928\u0947", " \u0915\u0947 \u092c\u093e\u0926 "], ["\u0932\u094b", "\u0915"], ["\u093e\u092f", "\u0924 "], [" \u0915\u0930 ", "\u0930\u0939\u0947 "], ["\u0905\u0927\u093f\u0915", "\u093e\u0930\u0940 "], ["\u092a", "\u0915\u094d\u0937"], ["\u0935\u093e\u0930", "\u094d\u0921"], ["\u0938\u093e", "\u0907"], [" \u0915\u093e\u0930\u094d\u092f", "\u0915\u094d\u0930\u092e"], ["\u0907\u0938\u0915\u0947 ", "\u0905\u0932\u093e"], ["\u0917\u094d\u0930", "\u093e"], ["\u0926", "\u0943"], ["\u092e\u093e\u0927\u094d\u092f", "\u092e"], ["\u0935\u093e", "\u092f\u0941"], ["\u0928\u093f", "\u0917"], ["\u092e\u0941", "\u0924\u093e\u092c"], ["\u0935\u093f", "\u0937"], ["\u0924\u093e", "\u092a"], ["\u0932\u0917\u092d", "\u0917 "], ["\u0935\u093e", "\u0938\u094d\u0924"], ["\u091a\u0941", "\u0915\u0940 "], ["\u0915\u094b", "\u0930\u094b"], ["\u0925", "\u0947 "], ["\u0926", "\u094d\u0930"], ["\u0935", "\u0939\u093e\u0902 "], [" \u0915\u093f\u092f\u093e ", "\u0917\u092f\u093e \u0939\u0948\u0964"], [" \u0915\u094b", "\u0908"], ["\u0930\u0939", "\u0947\u0964"], ["\u0937\u094d", "\u0920"], [" \u092a", "\u093f"], [" \u092a", "\u0948"], ["\u0935\u094d\u092f", "\u0915\u094d\u0924\u093f"], ["\u0938\u0902\u0916\u094d\u092f", "\u093e "], ["\u0924", " \u0915\u0940 "], ["\u0930", " \u0915\u0940 "], ["\u0938", "\u0930\u0940 "], ["\u093e", " \u0915\u0940 "], [" \u0915\u0939", "\u0928\u093e "], [" \u092e", "\u0940"], ["\u092e", "\u0902\u0926\u093f"], ["\u092c", "\u0932"], ["\u092e\u0947\u0902", "\u091f"], ["\u0935\u093e", "\u0926"], ["\u093f\u092f", "\u094b\u0902 \u0915\u093e "], ["\u092d\u093e\u0930", "\u0924 "], ["\u0930\u093e", "\u0924 "], [".", "."], ["\u091c", "\u0932\u094d"], ["\u0938", "\u093e\u0928 "], ["\u0902\u0917", "\u0920"], ["\u0932\u093e", "\u0907"], ["\u0935\u093f\u0926\u094d\u092f", "\u093e\u0932\u092f"], ["\u0930\u093e\u091c", "\u0928\u0940"], ["\u0939\u094b\u0917", "\u0940\u0964"], ["\u091c\u094d\u091e", "\u093e"], ["\u0920", "\u0940"], ["\u0921", "\u0940 "], ["\u092f\u094b\u091c", "\u0928\u093e"], ["\u0907\u0938\u0915\u0947 ", "\u092c\u093e\u0926 "], ["\u0915", "\u094b "], ["\u0924", "\u0943"], ["\u092a", "\u0949\u091c\u093f\u091f\u093f"], ["\u0939", "\u093e\u0930"], ["\u095c", "\u0947 "], [" \u0915\u0930\u0928\u0947", " \u0915\u0947 \u0932\u093f\u090f"], [" \u0938\u094d", "\u0935\u093e\u0938\u094d\u0925\u094d\u092f"], ["\u091c\u0948", "\u0938\u0947 "], ["\u0924\u0940", "\u0928"], ["\u0928\u093f\u092f", "\u092e"], ["\u092d", "\u093e "], ["\u0935\u093e\u0930", "\u094d"], ["\u092d\u093f", "\u0928\u094d"], ["\u0935\u093f", "\u0921"], [" \u0938\u0902", "\u0918"], ["\u0905\u0902", "\u0924\u0930"], [" \u0938\u094d", "\u0935"], ["\u0916", "\u093e "], ["\u0930\u093e", "\u0947"], ["\u093e\u0928", "\u0942"], [" \u0938", "\u0942"], ["\u0906\u0930\u094b", "\u092a"], ["\u0932", "\u093f\u092f\u093e\u0964"], ["\u0905", "\u0927\u094d\u092f\u0915\u094d\u0937"], ["\u092a", "\u093e\u0928"], ["\u092a\u0930", "\u0947\u0936"], ["\u0939\u093e", "\u0930 "], ["\u0905", "\u092b"], ["\u095c", "\u0915"], [" \u0938\u0902", "\u0915\u094d\u0930\u092e"], ["\u090f\u0938", "\u0921\u0940"], ["\u092d\u093e", "\u0935\u093f"], ["\u0939", "\u094b\u0902"], ["\u0902\u0926", " "], ["\u0916\u093f\u0932\u093e", "\u092b "], ["\u091c\u093e ", "\u0930\u0939\u093e "], ["\u092f\u093e\u0926", "\u0935"], ["\u0932\u0917\u093e", "\u0924\u093e\u0930 "], ["\u0938\u093f", "\u0902\u0917"], ["\u0939\u093e", "\u0902"], ["\u090f", "\u0932"], ["\u092e", "\u0942\u0932"], ["\u092f\u0941\u0935", "\u0915"], ["\u0935\u093e\u0938\u094d\u0925", "\u094d\u092f "], ["9", " "], ["\u0925\u093e\u0928", "\u093e "], ["2", "5"], ["\u0926\u0930\u094d", "\u0936\u0928"], ["\u0938", "\u092e\u093e"], ["\u091c\u093e ", "\u0930\u0939\u0940 \u0939\u0948\u0964"], ["\u091f\u093e", "\u0907"], ["\u0917\u093e\u0902", "\u0935 "], ["\u091c\u094d\u091e", "\u093e\u0928"], ["\u0921\u093c", "\u093e"], ["\u092c", "\u0928 "], [" \u0915\u0930", "\u0935\u093e"], ["\u0916", "\u094b"], ["\u0926\u093f\u0932\u094d", "\u0932\u0940 "], ["\u0928", "\u0917\u0930"], ["\u0935", "\u0932"], ["\u0936\u094d\u0930", "\u0940"], [" \u092e", "\u0902\u0924\u094d\u0930"], ["\u0902\u0921", " "], ["\u0935\u093f", "\u0924\u094d\u0924"], ["\u0913", " "], ["\u092e\u093e\u0930", "\u0947 "], [" \u092c", "\u0928"], [" \u092e", "\u094b"], ["\u0917", "\u0908"], ["\u091a\u093e", "\u0939"], ["\u092c\u093e", "\u0939\u0930 "], ["\u0935\u094d\u092f\u0935", "\u0938\u094d\u0925"], ["\u0936", "\u0902"], [" \u0915\u0947", "\u0938 "], ["\u0902\u0926", "\u0930 "], ["\u0906", "\u091c"], ["\u0907", "\u0924"], ["\u0928 ", "\u0914\u0930 "], [" \u0915\u0947", "\u0935\u0932 "], ["\u0907\u0928", "\u092e\u0947\u0902 "], ["\u091c\u093f\u0938", "\u0915\u0947 "], ["\u0928", " \u0915\u093e "], ["\u092e\u093e\u092e", "\u0932\u093e "], ["\u0906", "\u092f\u094b"], ["\u093e\u092f", "\u0932"], [" \u0915\u0947", "\u0902\u0926\u094d\u0930 "], [" \u0938\u094d", "\u0925\u093e\u0928"], ["\u0916", "\u094d"], ["\u0928\u093f", "\u0936\u094d\u091a"], ["\u0932\u093e", "\u0907\u0928 "], [",", " \u0915"], ["\u0910", "\u0938\u093e "], ["\u092a", "\u0930\u0940\u0915\u094d\u0937"], ["\u0932\u0947", "\u091c"], ["\u0938\u094d\u0925", "\u093f\u0924\u093f"], [" \u0915\u0930", "\u0924\u0947 \u0939\u0941\u090f "], [" \u0938", "\u0930\u094d"], ["\u0924", "\u0930\u094d"], [" \u092c", "\u0948"], ["\u0928\u0939\u0940\u0902 ", "\u092e\u093f\u0932"], ["\u0928\u0947 ", "\u0932\u0917"], ["\u0930\u093e", "\u0935"], ["\u0932\u094b\u0917", "\u094b\u0902 \u0928\u0947 "], ["\u0938\u0941", "\u092c\u0939 "], ["\u0942", "\u0932 "], ["\u0928\u093e ", "\u092e\u0947\u0902 "], ["\u0938\u092e", "\u094d"], ["\u091a\u0932", "\u0924\u0947 "], ["\u0930", "\u0924"], ["\u0935\u093f", "\u092d\u093f\u0928\u094d"], [" \u0915\u0940 \u0913", "\u0930 \u0938\u0947 "], ["20", "0"], ["\u0906\u0917", "\u0947 "], ["\u0907\u0932\u093e", "\u091c"], ["\u0921\u093c", "\u0915"], ["\u092d", "\u0935"], ["\u0932", "\u0942"], ["1", "4"], ["\u0910", "\u0938\u0940 "], ["\u0938\u094d", "\u0935\u093e\u0938\u094d\u0925\u094d\u092f"], ["\u0917\u0902", "\u092d\u0940"], ["\u0938\u0942\u091a", "\u0928\u093e "], ["\u0909", "\u0938 "], ["\u090f", "\u0902"], ["\u0910\u0938\u0947 ", "\u092e\u0947\u0902 "], ["\u0917\u093f\u0930\u092b\u094d", "\u0924\u093e\u0930"], ["\u0930", "\u093f\u092f\u093e "], ["\u0935\u093f\u0927", "\u093e\u0928"], [" \u0915\u0943", "\u0937\u093f"], ["\u0905", "\u0917\u0930 "], ["\u092a\u094d", "\u0924\u093e"], ["\u092f", "\u0926\u093f"], ["\u0938", "\u094d\u092f\u093e"], ["\u0905", "\u0917"], ["\u0926", "\u0935\u093e"], ["\u0928\u093f\u0930\u094d", "\u0926\u0947\u0936 "], ["\u0938\u094d", "\u0924 "], ["\u0905", "\u092e\u0947\u0930\u093f\u0915"], ["\u0928\u093e", "\u0917"], ["\u093e\u0932", "\u092f "], ["\u092e", "\u091c"], [" \u0915", "\u0939\u093e"], [" \u0915\u0930\u0928\u0947 ", "\u092e\u0947\u0902 "], ["\u0915", "\u093e\u0932"], ["\u091a\u093e\u0939\u093f", "\u090f"], ["\u0924\u0941", "\u0932"], ["\u0938\u092e", "\u092f "], ["\u0935\u093e", "\u092a"], ["\u0905\u092c ", "\u0924\u0915 "], ["\u092a", "\u0924\u093e "], ["\u092e\u093e", "\u0939"], ["\u0932\u093e", "\u0907\u0928"], [" \u0915\u0947 ", "\u092a\u093e\u0938 "], ["\u092a\u0942\u0930\u094d", "\u0935"], ["\u0936", "\u0940 "], ["\u0938\u092e", "\u0930\u094d\u0925"], ["\u0936\u093f\u0915\u094d\u0937", "\u093e "], ["\u0930\u094b", "\u092a"], ["\u0932\u093f", "\u090f"], ["1", "8"], ["\u0905", "\u091a\u094d\u091b"], ["\u090f\u0938", "\u092a\u0940 "], ["\u0928", "\u094d\u092f\u0942"], ["\u0928\u0947", " \u0915\u0947 \u0932\u093f\u090f"], [" \u0915\u093e", "\u0947"], ["\u0905", "\u092d\u093f\u092f"], ["\u091f", "\u093f\u0915"], ["\u0926\u0947\u0936", " \u0915\u0947 "], ["\u0938\u094b", "\u092e"], [" \u0915\u093e", " \u0915\u0939\u0928\u093e "], ["\u0921", "\u093f\u0915"], ["\u0932", " \u0915\u0940 "], ["\u0939\u094b", " \u0938\u0915"], ["\u093f\u092f\u093e", ", "], [" \u0915\u094d\u0937\u0947\u0924\u094d\u0930", " \u0915\u0947 "], ["\u0902", "\u092d"], ["\u091d", "\u093e"], ["\u0924\u093e ", "\u0939\u0948, "], ["\u0927", "\u0930"], ["\u092c", "\u0928\u093e "], ["\u0932\u094b\u0917", "\u094b\u0902 \u0915\u0947 "], ["\u0924\u0930\u0939", " "], [" \u0915\u0930", "\u0915\u0947 "], ["20", " "], ["\u0909\u092e\u094d", "\u092e\u0940"], ["\u0932\u0917", "\u093e "], ["\u0936\u0930\u094d", "\u092e\u093e"], ["\u0930\u093e", "\u0924"], ["\u0935\u091c", "\u0939 \u0938\u0947 "], ["\u0935\u094d\u092f\u093e", "\u092a"], [" \u0915\u093f\u092f\u093e ", "\u091c\u093e\u090f\u0917\u093e\u0964"], ["\u0927", " "], ["\u092c", "\u0932\u094d"], ["\u092d\u093e\u0935", "\u0928\u093e "], ["\u0935\u0930\u094d\u0937", " "], ["\u093e\u0932", "\u093e "], ["\u094b\u0902 ", "\u092e\u0947\u0902"], [" \u0915\u0930\u0928\u0947", " \u0915\u0947 "], [" \u0915\u094d\u092f", "\u094b\u0902"], ["\u0928", " \u092a\u0930 "], ["\u0927", "\u0941"], ["\u0928", "\u0908 "], ["\u0932\u0915\u094d\u0937", "\u094d\u092f"], [" \u0915\u093e\u0930\u094d\u092f", "\u0915\u0930\u094d"], ["\u0925\u093e", " \u0915\u093f "], ["\u092a", "\u095c"], ["\u0930\u0916", "\u093e "], [" \u0915\u0941", "\u0932 "], ["\u0906\u0930\u094b", "\u092a\u0940 "], ["\u0916\u093f\u0932\u093e", "\u092b"], ["\u092c\u093e\u0930", "\u093f\u0936"], ["\u0935\u093e\u092f\u0930", "\u0938"], ["\u0939\u0941", "\u0906"], ["\u0927", "\u093e\u0928 "], ["\u092d", "\u0930\u094d"], ["\u092e\u094b", "\u0939"], [", ", "\u092e"], ["1", "0 "], ["\u0926\u094d\u0927", "\u093f"], [" \u0938", "\u0926"], ["\u0915\u094d\u091f", "\u0930"], ["\u092e\u0939", "\u093f\u0932\u093e "], ["\u0932\u093e", "\u0908"], ["\u0906", "\u092f"], ["\u090f", "\u092b"], ["\u0917", "\u0940"], ["\u0930\u093f\u092a\u094b", "\u0930\u094d\u091f "], ["\u093e\u0928\u0947", " \u0915\u093e "], [" \u0915\u093e\u0930\u094d\u092f", "\u093e\u0932\u092f"], ["\u091c", "\u093e\u0930\u0940"], ["\u091c\u0940", "\u0924"], ["\u0924\u093e ", "\u0939\u0948 "], [" \u0915\u0930", "\u0924\u0947 "], ["\u0926\u093e", "\u0927\u093f\u0915"], ["\u0938\u094d\u0924", "\u0947"], [" \u0915\u0947", " \u0915"], ["\u091f", "\u0942"], ["\u0922", "\u093e"], ["\u0926\u0941", "\u0930\u094d"], ["\u0938\u094d", "\u0935\u0940"], [" \u0915\u0947 ", "\u0930\u0942\u092a \u092e\u0947\u0902 "], ["\u0917", "\u0942"], ["\u0913\u0902", " \u0915\u094b "], ["\u0926\u0940 ", "\u0939\u0948\u0964"], ["\u0926\u0941", "\u0928\u093f\u092f\u093e "], ["\u0928\u093e", "\u092e "], ["\u092e\u094d", "\u092e\u0947"], [" \u0915\u0930 ", "\u0930\u0939\u0947 \u0939\u0948\u0902\u0964"], ["\u092a\u094d\u0930", "\u0947"], ["\u092c", "\u091c"], ["\u092e\u0939", "\u0924\u094d\u0935\u092a\u0942\u0930\u094d"], [" \u0915\u0947 ", "\u0926\u094c\u0930\u093e\u0928 "], ["\u0906", "\u0935\u0947\u0926"], ["\u092a\u093e", "\u0902\u091a"], ["\u0937\u094d\u091f", "\u093f"], ["\u0938\u093e", "\u0939"], ["\u0928", " \u0938"], ["\u0938\u094d", "\u0915 "], ["\u0926\u0942", "\u0930 "], ["\u0928\u093f\u0930\u094d", "\u0926\u0947\u0936"], ["\u092c", "\u094d\u0930"], ["\u0930", "\u0948"], ["\u0939\u0940", "\u0902"], ["1", "3"], ["\u091c\u0932", "\u0935\u093e\u092f\u0941"], ["\u0924", "\u092c "], [" \u092a\u094d\u0930", "\u0936\u093e\u0938"], ["\u092e\u0947", "\u0921\u093f\u0915"], ["\u092f", "\u0930 "], ["\u093f\u092f", "\u094b\u0902"], ["\u093f\u092f", "\u094b\u0902 \u0938\u0947 "], ["1", "7"], ["\u0928\u0947", " \u0915\u0947 \u092c\u093e\u0926"], ["\u0932\u0949\u0915\u0921\u093e", "\u0909\u0928"], ["\u0939\u0948\u0902", "."], ["\u0913\u0902", " \u0915\u0947 "], ["\u0917\u094d\u0930", "\u0940 "], ["\u092e", " \u092e\u0947\u0902 "], ["\u092e", "\u0939\u0940"], [" \u092a", "\u094d"], ["\u0905\u092a", "\u0928\u093e "], ["\u0926\u0947", "\u0935"], ["\u092b", "\u094d\u0930"], ["\u0932", "\u0902\u092c"], ["\u0938\u0939", "\u093f\u0924 "], [" \u0938\u092e", "\u092f"], ["\u0901", "\u091a"], ["\u0930", "\u093f\u092f"], ["\u091a", "\u093e\u0928"], ["\u0926\u0942", "\u0938\u0930\u0940 "], ["\u0930\u094d", "\u0938"], ["\u093f\u092f", "\u094b\u0902 \u092e\u0947\u0902 "], ["\u0906\u0935\u0936\u094d\u092f", "\u0915"], ["\u0917", "\u0932"], ["\u091c\u093e\u090f", "\u0964"], ["\u0926\u093f", "\u0938\u0902"], ["\u0928\u0947", "\u0924\u093e "], ["\u0906", "\u090f"], ["\u091c", "\u0935\u093e"], ["\u092c\u093f", "\u0928\u093e "], ["\u0936", "\u0930\u094d\u092e"], ["\u0909", "\u091a\u094d\u091a"], ["\u0926\u093f", "\u0916\u093e"], ["\u0935\u093f\u0936\u0947", "\u0937"], [" \u092e", "\u0939\u093e"], ["\u092c", "\u0924\u093e"], ["\u0936\u093f", "\u0935"], ["\u0917", "\u0923"], ["\u091c", "\u092e\u0940"], ["\u092e\u0948", "\u0902 "], ["\u0917\u093e\u0902\u0935", " \u092e\u0947\u0902 "], ["\u091c\u093e ", "\u0930\u0939\u0940 "], ["\u0927", "\u0940 "], ["\u094c", "\u0930 "], [" \u0915\u093e\u0930", "\u0923 "], [" \u0915\u094b", " \u092a"], ["\u0906", "\u0938"], ["\u092d\u093e\u091c", "\u092a\u093e "], [" \u0915\u094b", "\u0935\u093f\u0921"], ["\u0916\u0930\u0940", "\u0926"], ["\u092a\u0942", "\u0930\u0940 "], ["\u0935\u093e\u0930", " \u0915\u0940 "], ["\u0936", "\u0932 "], ["\u0905", "\u0930\u094d\u0925"], ["\u0915", "\u091f"], ["\u092a", "\u0902"], ["\u0935", "\u094b "], [" \u0915\u0930 ", "\u0926\u093f\u092f\u093e\u0964"], ["\u0907\u0938\u0915\u0947 \u0905\u0932\u093e", "\u0935\u093e "], ["\u0917", "\u0922\u093c"], ["\u0924\u094c", "\u0930 \u092a\u0930 "], ["\u0930\u094d", "\u092b "], ["\u0939\u093f", "\u0938\u094d"], ["\u0917", "\u095d"], ["\u0927", "\u093e"], [" \u0915\u093f\u092f\u093e ", "\u091c\u093e \u0938\u0915"], ["\u090f", "\u0938 "], ["\u0926\u094d", "\u0930 "], ["\u0928", "\u091c\u0930 "], ["\u092d", "\u0930 "], ["\u0938", "\u093e\u092f"], ["\u0938", "\u093e\u0932"], ["\u093e\u092f", "\u0915"], ["\u0940 ", "\u0939\u0948\u0964"], ["\u094d\u0939", "\u0947\u0902 "], [" \u092a\u094d\u0930", "\u094b"], ["1", "."], ["\u092e\u0941", "\u0926\u093e\u092f"], [" \u092a\u094d\u0930\u0924\u093f", "\u0936"], ["\u0917", "\u090f"], ["\u0917\u092f", "\u093e"], ["\u091f", "\u0948"], ["\u0926", "\u093f\u0932"], ["\u092c", "\u0938"], ["\u092d\u093e\u0930\u0924", "\u0940\u092f"], ["\u093e ", "\u0928\u0947 "], ["\u093e\u0930\u094d", "\u0935"], [" \u0915\u0930\u094d\u092e", "\u091a\u093e\u0930"], [" \u0915\u0940 ", "\u0917\u0908 "], ["\u092e", "\u0902"], ["\u0930", " \u0915\u094b "], ["\u0936\u093f\u0915", "\u093e\u092f\u0924"], ["\u0938\u0941", "\u0935\u093f\u0927"], [" \u0915\u0947 \u0924\u0939", "\u0924 "], [" \u092c", "\u0947"], [" \u0939\u0941", "\u0908 "], ["\u0911", "\u0928"], ["\u0924", "\u092e "], ["\u092d\u0942", "\u092e\u093f"], ["\u0938\u094d\u091f", "\u094d\u0930"], [" \u091c", "\u0948"], ["-", "19"], ["\u0915\u093e", "\u0936"], ["\u091a", "\u0948"], ["\u092e\u094c", "\u0924 \u0939\u094b "], ["\u0930\u093e\u0937\u094d\u091f\u094d\u0930", "\u0940\u092f"], ["1", "6"], ["\u0906", "\u091c "], ["\u0907", "\u0938\u094d\u0924\u0947"], ["\u0920", "\u093e"], ["\u0924\u093e", " \u0915\u0940 "], ["\u0928", "\u090f"], ["\u0935\u0940", "\u0921"], ["\u0936\u0941\u0930", "\u0941"], [" \u092a", "\u0949\u091c\u093f\u091f\u093f"], ["\u0917", "\u0930\u094d"], ["\u0921", "\u093e\u0932"], ["\u0921\u0949.", " "], ["\u0924", "\u093f\u0915 "], ["\u091f\u093f", "\u0902\u0917"], ["\u091f\u094d\u0930", "\u0948"], ["\u0924\u093e", " \u0915\u0947 "], ["\u0926\u094b", "\u092a\u0939"], ["\u0936\u093f\u0915\u094d\u0937", "\u0915"], ["\u0938\u0902", "\u091a\u093e\u0932"], ["\u0905", "\u092d\u093f"], ["\u0928\u093f\u0930\u094d", "\u0923"], ["\u0936\u0939", "\u0930 \u092e\u0947\u0902 "], ["\u0939\u094b", "\u0924\u0940 "], ["\u0928\u094d\u092f", "\u093e\u092f"], ["\u092e", "\u0924 "], [" \u091c", "\u094b"], ["\u0926\u0940", "\u092a"], ["\u092c\u0939\u0941", "\u0924"], ["\u092c\u0948", "\u0902\u0915"], ["\u092e\u093e\u0927\u094d\u092f\u092e", " \u0938\u0947 "], ["\u0930", "\u093f\u092f\u093e"], ["\u090a", "\u0930\u094d"], ["\u092e\u093e\u092e", "\u0932\u0947"], ["\u0935\u093f\u0936\u0947", "\u0937 "], [" \u092e", "\u0930\u0940\u091c"], ["\u0924\u093e ", "\u0926\u0947"], ["\u092f\u0942", "\u0930\u094b\u092a"], ["\u0932", ", "], ["\u0938\u094d\u0935", "\u0930\u0942\u092a"], ["\u0940", " \u0915\u094b "], [" \u0915\u093f\u092f\u093e ", "\u0917\u092f\u093e "], ["\u0927\u094d\u092f", "\u093e\u0928 "], ["\u0936", "\u0935"], ["\u0947 ", "\u092a\u0930 "], [" \u0915\u0930\u093e", "\u092f\u093e "], [" \u0915\u093e\u0930", "\u094d"], ["\u0928\u093f\u0915", "\u0932"], ["\u092e", "\u0942"], ["\u092e\u093e\u0930", "\u094d\u091f"], ["\u0940 ", "\u0914\u0930 "], ["\u0916\u0941", "\u0926"], ["\u0917\u0902\u092d\u0940", "\u0930 "], ["\u092a", "\u0926"], [" \u0915\u0947 ", "\u0926\u094c\u0930\u093e\u0928"], [" \u092a", "\u094b"], [" \u0938\u0939", "\u093f\u0924 "], [" \u0939", "\u093f"], ["4", "0"], ["\u0907\u0938\u0915\u0947 ", "\u0932\u093f\u090f "], ["\u091c\u093e\u0928", "\u0915\u093e\u0930"], ["\u091c\u093f\u0932", "\u093e"], ["\u0926", "\u0932"], ["\u0928\u093f\u0930\u094d", "\u0927\u093e\u0930"], ["\u092a", "\u0924\u093f"], ["\u0935\u094d\u092f\u0935\u0938\u094d\u0925", "\u093e "], [" \u0915\u093e ", "\u092a\u094d\u0930"], ["\u0913\u0902", " \u0915\u0940 "], ["\u0928\u0947 \u0915", "\u0939\u093e "], ["\u0939\u093e", "\u0925"], [" \u092c", "\u093f"], ["\u091c\u092c", "\u0942"], ["\u0936\u0939\u0930", " \u0915\u0947 "], [" \u0915\u094d", "\u0935\u093e\u0930"], [" \u092a\u0930\u093f", "\u0935\u0930\u094d\u0924"], ["\u091a", "\u093e\u0930\u0940 "], ["\u092c", "\u093f\u0932"], ["\u0935\u093f\u0927", "\u093e\u092f\u0915 "], ["\u093e\u092f", "\u093e\u0964"], ["\u0909\u0938\u0915", "\u093e "], ["\u0918", "\u0941"], ["\u091f\u0947", "\u0938\u094d\u091f"], ["\u092c\u0947\u0939", "\u0924\u0930 "], ["\u0932\u093e", "\u0908 "], ["\u0938\u0902", "\u0918"], [" \u0915", "\u0902"], [" \u0915\u093f\u092f\u093e ", "\u0925\u093e\u0964"], ["\u0924", "\u0924\u094d"], ["\u0925", "\u0940, "], ["\u0926\u0947\u0936", "\u094b\u0902 \u092e\u0947\u0902 "], ["\u0935", "\u0939\u0940\u0902"], ["\u0938\u094d\u0915", "\u0942\u0932"], ["\u090f", "\u0921"], ["\u0926\u093f\u092f\u093e ", "\u0939\u0948\u0964"], ["\u0930\u094d", "\u0937"], ["\u0932\u094d", "\u092a"], ["\u0939\u0941", "\u0908\u0964"], ["\u0939\u0941\u0908 ", "\u0939\u0948\u0964"], ["\u093f\u092f", "\u094b\u0902 \u0915\u094b"], [" \u0915\u0940 ", "\u0938"], [" \u092a", "\u0930\u0940\u0915\u094d\u0937"], ["\u0909", "\u0926\u094d\u092f\u094b\u0917"], ["\u091c\u0917", "\u0939"], ["\u092c\u093f\u091c", "\u0932\u0940 "], ["\u0930\u0939", "\u093e\u0964"], ["\u0932", "\u093e\u0932 "], ["\u0939\u0948\u0902 ", "\u0914\u0930 "], [" \u0915\u0940 ", "\u0917\u0908\u0964"], ["\u0928\u093f", "\u091c\u0940 "], ["\u0935\u093e", "\u0908 "], ["\u094d\u0930\u093e", "\u0937\u094d\u091f\u094d\u0930"], [" \u0915\u093e\u0930", "\u0923"], ["\u0905\u0938\u094d\u092a\u0924\u093e\u0932", " \u092e\u0947\u0902 "], ["\u0907\u0938 ", "\u0924\u0930\u0939"], ["\u0924\u093f", "\u0925"], ["\u0928\u0941", "\u0915"], ["\u0947 ", "\u0938\u0947 "], [" \u0915\u094d\u092f", "\u093e "], ["\u091a\u093f", "\u0902"], ["\u092c", "\u0921\u093c\u0940 "], ["\u0938\u0926", "\u0938\u094d\u092f"], ["\u092a\u0941", "\u0930 \u092e\u0947\u0902 "], ["\u0935", "\u0930\u0940 "], ["\u093f\u0924", " \u0915\u0930"], [" \u0915\u0949", "\u0932\u0947\u091c"], [" \u0915\u094b ", "\u092d\u0940 "], [" \u0939\u094b", " \u0938\u0915"], ["\u0906\u0930\u094d\u0925", "\u093f\u0915 "], ["\u0924\u093e ", "\u092e\u0947\u0902 "], ["\u0928\u0940", "\u0924\u093f"], ["\u092b\u0948", "\u0938"], ["\u092e", "\u0923"], ["\u0930\u093e", "\u092e "], ["\u0930\u093f\u0915", "\u094d"], ["\u0930\u094d", "\u092b"], ["\u0938\u094d", "\u091f "], ["\u093f\u092f", "\u0928 "], [" \u0915\u093f\u0938\u0940 ", "\u092d\u0940 "], [" \u092a", "\u0947"], ["\u0906", "\u0935\u093e"], ["\u0909\u0938", "\u0928\u0947 "], ["\u0928\u0947", "\u0924\u0943"], ["\u092a\u0930\u093f", "\u0935\u093e\u0930"], ["\u0935", "\u093f\u0932"], ["\u0935\u093f\u0927\u093e\u0928", "\u0938"], [" \u0915", "\u093e\u0928\u0942"], [" \u0915\u094d\u0937\u0947", "\u0924\u094d\u0930 "], ["\u0935\u0948", "\u0936\u094d"], ["\u0938\u094d", "\u0935\u093e"], ["\u091a\u0941", "\u0928\u094c"], ["\u091a\u0941\u0915\u0947 ", "\u0939\u0948\u0902\u0964"], ["\u0928\u093f\u092f", "\u0902\u0924\u094d\u0930"], [" \u0938", "\u0947\u0902\u091f"], [" \u0938\u092e", "\u091d"], ["\u0920\u0940", "\u0915 "], ["\u0928", "\u0902\u092c\u0930 "], ["\u0937\u094d", "\u0923"], ["\u0938\u094d\u0925", "\u093f\u0924"], ["\u0924", "\u0902"], ["\u092b", "\u093f\u0932\u094d"], ["\u093e\u0928\u0947", " \u0915\u0947 \u0932\u093f\u090f"], ["\u093f", "\u0924\u093f "], ["-", "\u0915"], ["\u0902\u092a", "\u0932 "], ["\u0909", "\u0926\u094d"], [" \u0938", "\u092e\u093e"], ["\u0907\u0938 ", "\u0926\u094c\u0930\u093e\u0928 "], ["\u0927", "\u0928 "], ["\u092a\u0939", "\u0932\u0940 "], ["\u092d", "\u0917"], ["\u092e\u0941\u0924\u093e\u092c", "\u093f\u0915"], ["\u0938\u0939", "\u092f\u094b\u0917"], ["\u091c\u093e", "\u0917"], ["\u0921", "\u093f\u092f\u093e "], ["\u0924\u0930", "\u092b"], ["\u092a\u0942\u0930\u094d", "\u0935 "], ["\u0949", "\u0930\u094d"], [" \u0905\u092a", "\u0928\u0947 "], ["\u0909\u0928", "\u094d"], ["\u0935\u093f", "\u091a\u093e\u0930"], ["\u0936", "\u0932"], ["\u0938\u094d\u0924", "\u0941"], ["\u0947", " \u0915\u0940 "], ["\u0902", "\u0924 "], ["\u0915\u094d", "\u0924\u093f "], ["\u0915\u094d", "\u0938\u0940"], ["\u0932\u093e", "\u0917\u0942"], ["\u0926\u0947", "\u0915\u0930 "], ["\u0928", "\u093e\u0932"], ["\u0928\u094d", "\u0926\u094d\u0930 "], ["\u092e\u093e", "\u0938\u094d\u0915 "], ["\u0935\u093e\u092a", "\u0938 "], ["\u0938", "\u091a\u093f"], ["\u0938\u0902", "\u092d\u093e\u0935\u0928\u093e "], [" \u0938", "\u0941\u0930\u0915\u094d\u0937"], ["\u0907\u0938\u094d\u0924\u0947", "\u092e\u093e\u0932"], ["\u091c\u0930\u0942", "\u0930\u0924 "], ["\u092b", "\u0938\u0932"], ["\u092b", "\u093f\u0932"], ["\u0930", "\u0902"], ["\u0916", "\u0928"], ["\u0928 ", "\u0939\u094b"], ["\u092a\u094d\u0930", "\u0948"], ["\u092c\u0928\u093e", "\u090f "], ["\u0930\u094d", "\u0938 "], ["\u0935", "\u093e\u0928 "], [" \u0905", "\u0917"], ["\u0902", "\u0938 "], ["\u0917", "\u0940 "], ["\u091c\u0917", "\u0939 "], ["\u0921", "\u094b"], ["\u0926\u093f", "\u0916"], ["\u092c\u0924\u093e\u092f\u093e", " \u0915\u093f "], ["\u092d\u0941", "\u0917\u0924"], ["\u0939", "\u092e\u093e\u0930\u0947 "], [" \u0915\u094b", "\u0936\u093f"], [" \u0938", "\u093e\u0932 "], ["\u0918", "\u093e\u092f\u0932"], ["\u091c\u093e", "\u0924\u0940 "], ["\u091c\u093f", "\u0938\u0947 "], ["\u0928\u093f\u0917", "\u092e"], ["\u092e\u094c", "\u091c\u0942\u0926 "], ["\u0938", "\u093f\u0932"], ["\u0909\u092a", "\u0938\u094d\u0925\u093f\u0924 "], ["\u0916", "\u0924\u0930"], ["\u092b\u0940", "\u0938"], ["\u0936", "\u0930\u093e\u092c"], ["\u0918\u0902\u091f", "\u0947 "], ["\u091c", "\u092e\u093e"], ["\u091c", "\u0930"], ["\u0935\u0948\u0936\u094d", "\u0935\u093f\u0915"], ["\u0936\u093e", "\u092e "], ["\u0938\u094d\u0925\u093e", "\u092a"], ["\u0917", "\u0947\u0964"], ["\u0917\u093e\u0902\u0935", " \u0915\u0947 "], ["\u091d", "\u0947 "], ["\u0924\u0930\u0939", " \u0938\u0947 "], ["\u0925", "\u0947"], ["\u092d\u093e\u0935\u093f", "\u0924 "], ["\u0935", "\u0930\u0923"], ["\u0935\u093f", "\u0924\u0930"], [" \u0938\u094d\u0915", "\u0942\u0932"], [", ", "\u0906"], ["\u092a\u0902\u091a", "\u093e\u092f\u0924"], ["\u092c", "\u0921\u093c\u0947 "], ["\u092c\u094d", "\u0932"], ["\u092d\u0947", "\u091c"], ["\u0932\u094b\u0917", "\u094b\u0902 \u0915\u094b"], ["\u0947\u0936", "\u0928 "], [" \u0938", "\u092e\u093f"], ["20", "20"], ["\u0920", "\u0947"], ["\u0921\u093f", "\u0938\u094d\u091f"], ["\u0926", "\u0915\u094d\u0937"], ["\u0927\u093e\u0930 ", "\u092a\u0930 "], ["\u0928\u093f\u0915", "\u093e\u0932"], ["\u092b", "\u093e\u092f"], ["\u092c", "\u0932 "], ["\u092d\u093e\u091c", "\u092a\u093e"], ["\u0930\u094b", "\u091c\u0917"], ["\u0938\u094d\u0924", "\u093e\u0928"], ["\u0939", "\u0924\u094d\u092f\u093e"], [" \u091c", "\u0940"], ["\u0917", "\u0939"], ["\u091f", " \u092e\u0947\u0902 "], ["\u0923", "\u093e\u0932"], ["\u0926", "\u093e\u0930\u0940 "], ["\u0926\u093f", "\u0935"], ["\u092a\u094d\u0930", "\u0916\u0902\u0921"], ["\u0935\u093f\u092d\u093e\u0917", " \u0915\u0947 "], ["\u0939\u0941\u0906 ", "\u0939\u0948\u0964"], ["\u093e\u0930\u094d\u0935", "\u091c\u0928"], [" \u092a\u0942", "\u0930\u0940 "], ["\u091c", "\u0947\u0902"], ["\u0924\u093e ", "\u0939\u0948 \u0915\u093f "], ["\u0926", "\u0930 "], ["\u092e\u094c", "\u0924"], ["\u0930\u0939", "\u0940\u0964"], ["\u0936\u0941\u0930\u0941", "\u0906"], [" \u0915\u0930", "\u0947\u0902\u0917\u0947\u0964"], [" \u0915\u0930", "\u0947\u0902\u0964"], ["%", " "], ["\u0915\u094b\u0930\u094b", "\u0928\u093e "], ["\u091c\u0942", "\u0926"], ["\u092c", "\u0949"], ["\u092e", "\u091c\u092c\u0942"], ["\u0939", "\u092e\u0947\u0902 "], ["\u0907\u0938 ", "\u092c\u093e\u0924"], ["\u0923", "\u093e"], ["\u0924", "\u092c"], ["\u0938", "\u093e\u0932 "], ["\u0938\u0930", "\u0915\u093e\u0930\u0940 "], ["\u0938\u094d\u092f", "\u093e "], ["\u0939\u093e\u0932\u093e\u0902", "\u0915\u093f"], ["2", "4"], ["\u0930\u0939", " "], ["\u0930\u0940", "\u091c "], ["\u0932\u0947", "\u0915\u094d\u091f\u0930 "], ["\u0905", "\u092e"], ["\u0905", "\u0935\u0948"], ["\u0906", "\u0928\u0947 \u0935\u093e\u0932\u0947 "], ["\u0913\u0902", " \u0915\u093e "], ["\u091c\u093e\u0902\u091a", " "], ["\u092d", "\u093e\u0932"], ["\u092e\u094b", "\u092c\u093e\u0907"], ["\u0937", "\u093f\u0924"], ["\u093f\u0915", "\u093e "], ["\u0916\u0947", "\u0932"], ["\u0926", "\u0936"], ["\u092a", "\u0947\u0936"], ["\u092a\u093f", "\u0924\u093e "], ["\u0932\u093f", "\u0916"], ["\u0935\u0943", "\u0926\u094d\u0927\u093f"], ["\u0936\u094d", "\u091a\u093f"], [" \u0915\u093f\u090f ", "\u0917\u090f "], ["2", "1"], ["\u0906\u0930\u094b", "\u092a "], ["\u0915\u093e\u0930", "\u094d\u092f"], ["\u0924", "\u093e\u0932 "], ["\u0925", "\u0947, "], ["\u0928", "\u0930\u0947"], ["\u0928\u093e", "\u0925"], ["\u092e\u0941\u0916", "\u094d\u092f "], ["\u092e\u0947\u0902", " \u0915\u094b\u0930\u094b\u0928\u093e "], ["\u0932\u0917", "\u093e\u092f\u093e "], ["\u0938\u0902", "\u092a\u0930\u094d"], ["\u0939", "\u093e\u0928"], [" \u092c", "\u0940"], ["\u0907", "\u0902\u091f"], ["\u0924\u093e", "\u0915\u093f "], ["\u092a\u0930", "\u094d\u092f\u093e"], ["\u092b", "\u0932 "], ["\u0935\u093e\u0932", " "], ["\u094c", "\u0902\u092a"], [" \u0915", "\u0908"], [" \u0915\u093f", "\u0938\u0940"], [" \u0915\u0941", "\u0932"], [", \u0938", "\u0941"], ["\u0902\u0917", "\u0947 "], ["\u0915", "\u093f\u0932"], ["\u0918\u094b", "\u0937\u0923"], ["\u091c", "\u092f "], ["\u0924\u093f\u0915", "\u094d\u0930"], ["\u0928\u0947", "\u091f"], ["\u0935\u093e\u0930\u094d", "\u0921 "], [" \u092e", "\u0939\u0940"], [".", "."], ["\u0905\u0902\u0924\u0930", "\u094d\u0930\u093e\u0937\u094d\u091f\u094d\u0930"], ["\u0909", "\u0932\u094d"], ["\u091c\u093f\u0932", "\u0947 \u0915\u0947 "], ["\u0926", "\u094c"], ["\u092a", "\u0928\u094d"], ["\u0932", " \u092a\u0930 "], ["\u0938\u0902\u0915\u094d\u0930\u092e", "\u093f\u0924 "], ["\u0947\u0917", "\u093e"], [" \u0915\u0930 ", "\u0932\u093f\u092f\u093e "], ["\u091c\u093e ", "\u0930\u0939\u0947 "], ["\u0926\u0947", "\u0928\u093e "], ["\u0928\u093f", "\u0930\u0940\u0915\u094d\u0937"], ["\u0930\u093e", "\u0938\u094d"], ["\u0935\u0930\u094d", "\u0917"], ["\u0935\u093f\u0926\u094d\u092f", "\u093e\u0930\u094d\u0925"], ["\u0939\u094b", "\u0928\u0947"], [" \u0915", "\u093e\u0932"], [" \u0915\u094b\u0936\u093f", "\u0936"], ["\u0906\u0930\u094d\u0925", "\u093f\u0915"], ["\u0924\u0947 \u0939\u0948\u0902", " \u0915\u093f "], ["\u0928\u093e\u0917", "\u0930\u093f\u0915"], ["\u092c\u0941\u0927", "\u0935\u093e\u0930 \u0915\u094b "], ["\u0938", "\u092e\u093e\u091c"], ["\u0947 ", "\u0939\u0948\u0902\u0964"], [" \u0915\u093e\u0902\u0917\u094d\u0930\u0947", "\u0938"], ["2", "2"], ["\u0907\u0938", " \u092a\u0930 "], ["\u0909\u092a", "\u093e\u092f"], ["\u091c\u092c", "\u0915\u093f"], ["\u091c\u093c", "\u0930\u0942"], ["\u0926\u093f\u0928", "\u094b\u0902 "], ["\u0927", "\u0930\u094d\u092e"], ["\u092a\u094d\u0930", "\u092d\u093e\u0930\u0940 "], ["\u0930\u093e", "\u0927"], [" \u091c", "\u0941"], [" \u092a\u0902\u091a", "\u093e\u092f\u0924"], ["\u0915", " \u0915\u0947 "], ["\u0917\u094d\u0930", "\u0939"], ["\u0924", "\u0932"], ["\u0924\u0939", "\u0938\u0940"], ["\u0924\u094d\u0930", "\u093f"], ["\u0938\u092e", "\u091d"], ["\u093e\u0928\u0947", " \u0915\u0947 "], [" \u0915\u093f\u092f\u093e ", "\u091c\u093e \u0930\u0939\u093e \u0939\u0948\u0964"], [" \u0915\u0941\u092e\u093e\u0930", ", "], ["\u0905\u0902", "\u0924\u093f"], ["\u090f\u0915\u094d", "\u0938"], ["\u092a", "\u093e\u0932 "], ["\u092a\u094d\u0930", "\u0926\u0947\u0936"], ["\u092f\u0942", "\u0928\u093f"], ["\u0939", "\u093f\u0924"], ["\u094d", "\u0938"], ["1", "5 "], ["5", "0 "], ["\u0907", "\u0921"], ["\u0915\u0941", "\u091b"], ["\u0917", "\u0920"], ["\u0917", "\u0940\u0964"], ["\u091c\u093f", "\u092e\u094d\u092e\u0947"], ["\u0924\u093e", " \u0915\u093e "], ["\u0924\u0947 ", "\u0939\u0940 "], ["\u092a\u094d\u0930", "\u0940"], ["\u092e", "\u0927\u094d\u092f"], ["\u092e", "\u0949"], [" \u0915\u0902\u092a", "\u0928\u0940 "], ["\u0906", "\u092f\u093e "], ["\u0907\u0938 ", "\u092c\u093e\u0930 "], ["\u090f", "\u0936"], ["\u0924\u093e ", "\u0938\u0947 "], ["\u0926\u094d\u092f\u094b\u0917", "\u093f\u0915"], ["\u092d\u0947", "\u091c\u093e "], ["\u092f\u094b\u091c", "\u0928\u093e "], ["\u093f\u092f", "\u094b "], [" \u0915\u0930\u094b", "\u0921\u093c "], [" \u0915\u0940 ", "\u0917\u0908 \u0939\u0948\u0964"], ["\u0906", "\u0927\u093e\u0930"], ["\u0909\u0928\u094d\u0939\u094b\u0902", "\u0928\u0947 \u0915\u0939\u093e \u0915\u093f "], ["\u091c\u093e", "\u0915\u0930 "], ["\u0921\u093f", "\u0917\u094d\u0930\u0940 "], ["\u0906", "\u0930 "], ["\u0909", "\u0926\u093e"], ["\u0915\u094d", "\u0938"], ["\u0916", "\u0930\u094d\u091a"], ["\u091c\u094d\u091e\u093e", "\u092a"], ["\u091f", "\u0930"], ["\u0924\u093e", " \u0915\u094b "], ["\u0926\u093f", "\u0928 \u092e\u0947\u0902 "], ["\u092b", "\u0941"], ["\u092c\u0948\u0920", "\u0915 \u092e\u0947\u0902 "], ["\u092d\u093e\u0917", " "], ["\u0932", "\u0930 "], ["\u0932\u0917", " "], ["\u093e\u0902", "\u0938"], ["2", "2"], ["\u0906", "\u092e "], ["\u0926\u0947", "\u0930 "], ["\u092e\u093f\u0932", " "], ["\u0936\u094d\u0935", "\u093f\u0915 "], [" \u0915\u0930", "\u0924\u0947 \u0939\u0948\u0902\u0964"], [" \u0938", "\u092c\u0938\u0947 "], ["-", "\u0905\u0932\u0917"], ["\u0907\u0938\u0915\u0947 ", "\u092c\u093e\u0926"], ["\u0915\u094d\u091f", "\u0942"], ["\u0915\u094d\u0930", "\u093f\u092f\u093e "], ["\u092c\u093e\u0907", "\u0915"], ["\u0930\u094d", "\u091a\u093e"], ["\u0935\u093e\u0939", "\u0928 "], ["\u0935\u0948", "\u0936\u094d\u0935\u093f\u0915 "], ["\u0939", "\u094d"], ["\u094d", "\u0938 "], ["\u091a", "\u0928\u093e "], ["\u091a\u093e\u0939\u093f", "\u090f "], ["\u0921\u093f\u0938\u094d\u091f", "\u0947\u0902"], ["\u0928", " \u092a\u094d\u0930"], ["\u092a\u094d\u0930", "\u094b"], ["\u092e\u0941", "\u0916 "], ["\u0936\u0930\u094d\u092e", "\u093e "], ["\u0942", "\u0939"], [" \u0915\u0930", "\u0924\u0940 "], [" \u0915\u0930", "\u0928\u0947 \u0935\u093e\u0932\u0947 "], ["10", "0"], ["\u0924\u0948\u092f", "\u093e\u0930 "], ["\u0936\u0941\u0915\u094d\u0930", "\u0935\u093e\u0930 \u0915\u094b "], ["\u0938\u093e", "\u092e\u093e\u091c"], ["\u0939\u0948 \u091c", "\u094b "], ["\u0915", "\u0930\u094d\u092e"], ["\u0924", " \u0938\u0947 "], ["\u092a\u094d\u0930", "\u0927\u093e\u0928"], ["\u0935\u093e\u0939", "\u0928"], [" \u0938", "\u093f\u0924"], ["\u091c\u0940", "\u0935"], ["\u0924\u093f", "\u0939\u093e"], ["\u0924\u093f\u0925", "\u093f"], ["\u0924\u0947", "\u091c\u0940 "], ["\u0928\u093f\u0936\u094d\u091a", "\u093f\u0924"], ["\u092c\u0922\u093c", "\u093e"], ["\u092e\u093e\u0930\u094d", "\u0917"], ["\u0939\u094b", "\u0928\u093e "], ["\u094b\u0902 \u0915\u0940 ", "\u0938\u0902\u0916\u094d\u092f\u093e "], [" \u0915\u093f", "\u0938\u093e\u0928 "], [" \u092e\u0939", "\u093f\u0932\u093e"], [",", " \u0938\u0902"], ["\u091a", "\u0932\u093e "], ["\u091c\u0932\u094d", "\u0926"], ["\u091c\u0941", "\u0930\u094d"], ["\u092c\u093e\u0926", " \u092e\u0947\u0902 "], ["\u0935\u093e\u0932", "\u093e "], [" \u0938", "\u0902\u0917\u0920"], [", ", "\u0930\u093e\u091c"], ["\u0906", "\u0902"], ["\u0918", "\u0930 \u092e\u0947\u0902 "], ["\u091a\u094c", "\u0915"], ["\u091c\u0930\u0942", "\u0930\u0940 "], ["\u0926", "\u092e "], ["\u0926\u0915\u094d\u0937", "\u093f"], ["\u0928\u093e", " \u0915\u0947 "], ["\u0928\u0940", "\u0924"], ["\u092b\u093e", "\u0908"], ["\u092e\u0947", "\u0924 "], ["\u091a\u0941\u0915\u0940 ", "\u0939\u0948\u0964"], ["\u0921", "\u094d\u092f\u0942"], ["\u0924", "\u0932\u093e"], ["\u0928\u093f", "\u0927\u093f"], ["\u092a", "\u0924\u093f "], ["\u092f", "\u093e\u0928"], ["\u0938\u092e", "\u0940"], ["\u0938\u093e\u092e", "\u0928\u093e"], ["\u093f\u092f\u094b", "\u091c"], ["\u0947", "\u0902\u0926\u094d\u0930 "], ["\u0947\u0902", "\u091f\u093e"], ["\u094b\u0902 ", "\u0926\u094d\u0935\u093e\u0930\u093e "], ["\u0916", "\u093e\u0928"], ["\u0926\u094b\u092a\u0939", "\u0930 "], ["\u092a\u0939\u0941\u0902\u091a", " "], ["\u092e\u0941\u0916\u094d\u092f", "\u092e\u0902\u0924\u094d\u0930\u0940 "], ["\u0930\u093f", "\u0924"], ["\u0935\u093f\u092d\u093e\u0917", " "], [" \u0915\u093e \u0915\u0939\u0928\u093e ", "\u0939\u0948 \u0915\u093f "], [" \u0939\u0941", "\u0906 "], ["\u091a\u0941\u0928\u093e", "\u0935 "], ["\u091f", "\u094d\u091f"], ["\u092e\u0947", "\u0930\u0947 "], ["\u0935", "\u0930\u0940"], ["\u0913\u0902 ", "\u092e\u0947\u0902 "], ["\u091f", " \u092a\u0930 "], ["\u0923", "\u093e "], ["\u0930\u0935\u093f", "\u0935\u093e\u0930 \u0915\u094b "], ["\u0930\u0947\u0932", "\u0935\u0947 "], ["\u0937\u094d\u091f", " "], ["\u0938\u0902", "\u092f\u0941\u0915\u094d\u0924 "], ["\u0938\u094d\u092a", "\u0924\u093e\u0932 "], [" \u0915\u0930", "\u0947\u0902\u0917"], ["\u0917", "\u093e "], ["\u092a\u0930\u093f", "\u0937"], ["\u092a\u093e\u0930", "\u094d\u091f"], ["\u092e\u091c", "\u0926\u0942\u0930"], ["\u0936\u094d\u0930", "\u0926\u094d\u0927"], ["\u0939\u0930", "\u0923"], [" \u0915\u094b ", "\u0926\u0947\u0916"], [" \u092a", "\u0926"], [" \u0938", "\u091a\u093f"], ["\u0902\u0917", "\u093e"], ["\u0905\u0928\u0941", "\u092e"], ["\u0915", "\u094d\u092f"], ["\u092f\u0939 ", "\u0939\u0948 \u0915\u093f "], ["\u0926\u094d\u0927", " "], ["\u092c\u0926", "\u0932\u093e"], ["\u092c\u093e", "\u0935"], ["\u0930\u0939\u093e ", "\u0925\u093e\u0964"], ["\u0935\u093f", "\u0926\u0947\u0936"], ["\u093e\u092f", "\u093e"], [" \u0915\u0930 ", "\u0930\u0939\u0940 "], ["\u0902", "\u0924"], ["\u091a\u094c", "\u0927"], ["\u092c\u0902\u0926", " "], ["\u0935\u093f\u092d\u093f\u0928\u094d", "\u0928 "], ["\u0936\u0940", "\u0932 "], ["\u0939\u0948 ", "\u0924\u094b "], [" \u0915\u0947 ", "\u0905\u0928\u0941\u0938\u093e\u0930 "], [" \u0915\u094b\u0935\u093f\u0921", "-19"], ["\u091a", "\u0932\u093e"], ["\u091a\u0941", "\u0915"], ["\u091c\u093e", "\u090f "], ["\u091c\u093e\u090f", "\u0902\u0917\u0947\u0964"], ["\u0924\u0947", "\u091c"], ["\u0925", "\u092e\u093f\u0915"], ["\u0928", "\u0917"], ["\u0928\u093e", "\u0907"], ["\u092a\u0942", "\u091b"], ["\u092a\u0949\u091c\u093f\u091f\u093f", "\u0935"], ["\u0938\u094d", "\u0935\u093e\u0938\u094d\u0925\u094d\u092f "], ["\u0939\u093e\u0932\u093e\u0902", "\u0915\u093f "], ["\u0926\u0930\u094d", "\u0936"], ["\u095c", "\u093e"], [" \u0915\u094d\u092f\u094b\u0902", "\u0915\u093f "], [" \u092c", "\u094b"], ["\u0915\u093f", "\u0902\u0917"], ["\u0926", "\u093e\u0928 "], ["\u0928", "\u0908"], ["\u0928", "\u093f\u0915 "], ["\u092a\u094d\u0930", "\u092f\u093e\u0938"], ["\u0932", "\u0941"], ["\u0939\u0941", "\u0908"], ["\u0909", "\u092a\u093e"], ["\u091a", "\u0930\u0923"], ["\u0924", "\u0928 "], ["\u0924\u093e ", "\u0914\u0930 "], ["\u0927", "\u0947 "], ["\u092a\u0942", "\u0930\u0947 "], ["\u092e", "\u093f\u0915 "], ["\u0905\u0917", "\u0932\u0947 "], ["\u0909\u092e\u094d\u092e\u0940", "\u0926"], ["\u091a", "\u0930"], ["\u091b\u093e\u0924\u094d\u0930", "\u093e"], ["\u091c\u093f", "\u0924 "], ["\u0924\u0915", " \u092a\u0939\u0941\u0902\u091a"], ["\u0926", "\u092f"], ["\u0928", "\u0930"], ["\u092d\u093e\u0930\u0924", "\u0940\u092f "], [" \u0915\u0930\u094d\u092e", "\u091a\u093e\u0930\u0940 "], [" \u0915\u0947 ", "\u092c\u093e\u0930\u0947 \u092e\u0947\u0902 "], ["\u0915\u0947 ", "\u0938\u0947 "], ["\u091c\u093f\u0928", "\u092e\u0947\u0902 "], ["\u0935\u093f", "\u0924"], ["\u0936", "\u093e\u0932"], ["\u0936\u0928\u093f", "\u0935\u093e\u0930 \u0915\u094b "], ["\u0938\u093e", "\u092e\u093e\u0928"], ["\u0948", "\u0930 "], [" \u0915\u0930 ", "\u0926\u0940 "], [" \u0915\u0947 ", "\u091c"], [" \u0938\u094d\u0925", "\u093f\u0924 "], [",", "00"], ["2", "3"], ["\u0905", "\u0924\u093f"], ["\u092a\u094d\u0930", "\u0935\u0947\u0936"], ["\u092c", "\u0928\u0940 "], ["\u092c\u093e", "\u091c\u093e\u0930"], ["\u092d", "\u0935\u093f\u0937"], ["\u092f\u093e\u0926", "\u0935 "], ["\u0930\u093e\u0936\u093f", " "], ["\u0935\u0940", "\u0902 "], ["\u093e\u0928", "\u0947 \u092e\u0947\u0902 "], [" \u0938\u092e\u093f", "\u0924\u093f"], ["12", " "], ["2", "7"], ["\u0906", "\u0902\u0915"], ["\u0906", "\u0902\u0926"], ["\u0907", "\u0902\u0926"], ["\u0917", "\u093e\u0964"], ["\u0917\u0941\u0930\u0941", "\u0935\u093e\u0930 \u0915\u094b "], ["\u091f\u0940\u092e ", "\u0928\u0947 "], ["\u0926\u094d\u0935\u093e\u0930", "\u093e"], ["\u0927", "\u093e "], ["\u0927", "\u094b"], ["\u0928\u093e\u0930", "\u093e\u092f"], ["\u092a\u0940", "\u091b"], ["\u0935\u094d\u092f", "\u0915\u094d\u0924"], [" \u091c", "\u0942"], ["\u0905\u0928\u0941", "\u0938\u093e\u0930"], ["\u0915", "\u094b\u0902 \u0915\u094b "], ["\u091c\u0928", "\u094d"], ["\u091c\u093e", "\u0924\u0940 \u0939\u0948\u0964"], ["\u092a\u0942\u0930\u094d", "\u0923"], ["\u092e\u0902\u0917\u0932", "\u0935\u093e\u0930 \u0915\u094b "], ["\u092e\u0939", "\u093e\u0930\u093e"], ["\u0932", "\u0902"], ["\u0947 ", "\u0914\u0930 "], ["\u094b\u0902", ", "], ["6", "0"], ["\u091a", "\u0930\u094d\u091a\u093e"], ["\u091c\u0932\u0935\u093e\u092f\u0941", " \u092a\u0930\u093f\u0935\u0930\u094d\u0924"], ["\u091c\u093e\u0917", "\u0930\u0942"], ["\u091c\u093f", "\u0938 "], ["\u0921\u093e", "\u0945"], ["\u0928\u0947\u0924\u0943", "\u0924\u094d\u0935"], ["\u092a\u0940", "\u091f"], ["\u092c\u0922\u093c", " "], ["\u092f", "\u0939\u0940 "], ["\u0930\u093e\u0937\u094d\u091f\u094d\u0930", "\u0940\u092f "], ["\u0932\u0940", " \u0915\u0947 "], ["\u0936\u0932 ", "\u0921\u093f\u0938\u094d\u091f\u0947\u0902"], ["\u0938", "\u0902\u0917"], ["\u0947\u0936", "\u0928"], [" ", "\u092e\u0947\u0902"], [" \u092a\u0941\u0932\u093f", "\u0938"], [" \u092a\u094d\u0930\u093e", "\u092a\u094d\u0924"], [" \u0939\u0941", "\u0906"], ["\u0916", "\u093f\u0932"], ["\u091a", "\u0947 "], ["\u0924", "\u0902\u0924\u094d\u0930"], ["\u0932\u093e\u092d", " "], [" \u0915", "\u0939\u0940\u0902 "], [" \u0915\u0930\u0928\u0947 ", "\u092a\u0930 "], [" \u0915\u0940 ", "\u092a\u094d\u0930"], [" \u092c", "\u0941"], ["\u090f", "\u0901"], ["\u0913", "\u0930 "], ["\u0918\u091f", "\u0928\u093e "], ["\u0926\u093f\u092f\u093e ", "\u0917\u092f\u093e \u0939\u0948\u0964"], ["\u0926\u0941", "\u0915"], ["\u092a\u0930\u093f", "\u091c\u0928"], ["\u092c", "\u093e "], ["\u092c\u0928", "\u093e\u092f\u093e "], ["\u092c\u0948", "\u0902\u0915 "], ["\u0930", "-"], ["\u0932\u093f", "\u0902\u0917"], ["\u0939\u093e\u0932", "\u093e"], [" \u0915\u0930\u0928\u0947 ", "\u0938\u0947 "], [" \u092a\u094d\u0930", "\u0947"], ["\u0906\u0902\u0926", "\u094b\u0932"], ["\u0928\u093f\u092f\u093e", "\u0926\u0940 "], ["\u0928\u0947 ", "\u0905\u092a\u0928\u0947 "], ["\u092b", "\u093e\u0930\u094d"], ["\u0932", " \u0938\u0947 "], ["\u0932\u0917", "\u0947 "], ["\u093f\u0915", "\u094b"], [" \u0915\u0930", "\u0924\u0947 \u0939\u0941\u090f"], [" \u0915\u0939\u093e", " \u0915\u093f "], [" \u0915\u0940 ", "\u0906"], [" \u092e\u0902\u0924\u094d\u0930", "\u0940 "], ["\u0917", "\u094c"], ["\u0928\u0947 ", "\u092d\u0940 "], ["\u092c", "\u0921\u093c\u093e "], ["\u092c", "\u0924\u093e \u0926\u0947"], ["\u092e\u093f\u0932", "\u0940 "], ["\u092f\u0941\u0935", "\u0915 "], ["\u091b", "\u093f"], ["\u091c\u093e", "\u0930 \u092e\u0947\u0902 "], ["\u0923", "\u093e\u092e"], ["\u0923", "\u0940 "], ["\u0924", "\u092f"], ["\u0928\u0941\u0915", "\u0938\u093e\u0928"], ["\u092b", "\u094d\u091f"], ["\u0939\u0948, ", "\u0932\u0947\u0915\u093f\u0928 "], [" \u0915\u0947 \u0905", "\u0932\u093e"], [" \u0939", "\u092e "], ["\u0906\u0926\u093f", " "], ["\u0909\u0920", "\u093e"], ["\u0915\u094d\u0937", "\u0947"], ["\u092e\u093e", "\u0902"], ["\u092f\u0926\u093f", " "], ["\u0935", "\u0949"], ["\u0935\u094d\u092f\u093e", "\u092a\u093e\u0930"], ["\u0938\u092e", "\u0938\u094d\u092f\u093e"], ["\u0939\u093e", "\u0926"], ["\u0939\u094b", "\u0924\u0940 \u0939\u0948\u0964"], ["\u0940", "\u0928 "], [" \u092a\u0941\u0932\u093f\u0938 ", "\u0928\u0947 "], [" \u092a\u0942", "\u0930\u093e"], ["8", "0"], ["\u0905\u092a", "\u0940"], ["\u091a", "\u093f\u0924 "], ["\u091c\u0940", "\u0935\u0928"], ["\u0924", "\u093f\u092f"], ["\u092b", "\u0930\u094d"], ["\u092f\u0941", "\u0935\u093e "], ["\u0935\u093f\u0924\u0930", "\u0923"], ["\u0936\u0941\u0930\u0942", " \u0939\u094b "], ["\u0938\u0947", "\u0935\u093e"], ["\u0939\u0941", "\u0901\u091a"], [" \u0905", "\u0938\u094d\u092a\u0924\u093e\u0932"], [" \u0915", "\u0932"], [" \u0915\u0940 \u0913", "\u0930 "], [" \u092e\u094c", "\u091c\u0942\u0926 "], [" \u0938\u0947 ", "\u0905\u0927\u093f\u0915"], [" \u0938\u0947 ", "\u091c\u094d\u092f\u093e\u0926\u093e "], [" \u0939\u094b\u0917", "\u093e\u0964"], ["7", "0"], ["\u0902", "\u091f\u0947"], ["\u0905", "\u0930"], ["\u0909", "\u0902\u0921"], ["\u090a", "\u092a\u0930 "], ["\u0911", "\u092b\u093f"], ["\u0921", "\u094d\u0921"], ["\u0928", "\u0930\u094d"], ["\u092a\u094b", "\u0930\u094d\u091f"], ["\u092d\u093e\u0930", "\u0924 \u092e\u0947\u0902 "], ["\u092e\u0939\u093e", "\u092e\u093e\u0930"], ["\u092e\u093e\u0928", "\u093e "], ["\u092e\u0947\u0921\u093f\u0915", "\u0932"], ["\u0930\u093e\u092e", "\u0926"], ["\u0935\u093f\u0936\u094d", "\u0935 "], ["\u0936\u093f\u0915", "\u093e\u092f\u0924 "], ["\u0938\u094d", "\u200d"], ["\u093f\u092f\u093e", " \u0915\u0947 "], ["\u094d\u092f\u093e", "\u0926\u093e"], [" \u0915\u0902\u092a", "\u0928\u093f\u092f"], [" \u092a", "\u0941\u0930"], ["\u0915\u093e", "\u092c"], ["\u0917", "\u093e\u092f"], ["\u091c\u093e", "\u092e"], ["\u0926\u093f\u0916\u093e", "\u0908 "], ["\u092d\u0947", "\u091c "], ["\u092e\u0941", "\u0936\u094d"], ["\u092e\u094c", "\u0924 "], ["\u0932\u0947", "\u0915\u094d"], ["\u0935\u0930\u094d\u0924", "\u092e\u093e\u0928"], ["\u0936", "\u0939\u0930 "], ["\u0938", "\u0941\u0930"], ["\u094d\u0930", "\u094b"], ["\u091f\u093f", "\u0935 "], ["\u0921\u0949", "\u0915\u094d\u091f\u0930 "], ["\u0928", "\u092f\u093e "], ["\u0928\u0947", "\u0936\u0928"], ["\u092e\u0939\u0924\u094d\u0935\u092a\u0942\u0930\u094d", "\u0923 "], ["\u092e\u093e\u092e", "\u0932"], ["\u092e\u0941", "\u0915"], ["\u0932\u0947", "\u091f"], ["\u0935\u093e\u0938\u094d\u0924", "\u0935"], ["\u0935\u093f\u0915", "\u0938"], ["\u094b", "\u0939"], [" \u092e", "\u0902\u0921"], [" \u0938\u0947", "\u0935\u093e"], [", \u0938", "\u093e"], ["\u0905", "\u0932"], ["\u0907\u0902", "\u0924"], ["\u090f", "\u091c\u0947\u0902"], ["\u092a\u094d\u0930", "\u092d\u093e\u0935"], ["\u092d\u093e", "\u0908"], ["\u092e", "\u0932"], ["\u092e\u093e", "\u0924\u094d\u0930"], ["\u0932\u093e", "\u0917\u0924"], ["\u0935\u093e\u0930", " \u0915\u093e\u0947 "], ["\u0947", "\u0921"], ["\u094b\u0902", " \u0915\u0947 \u0932\u093f\u090f"], [" \u0915\u093f", "\u0932\u094b"], [" \u0915\u094d\u0935\u093e\u0930", "\u0947\u0902\u091f\u093e"], [" \u092e", "\u093e\u0928"], [" \u0938\u094d", "\u0935\u093e\u0938\u094d\u0925\u094d\u092f "], ["\u0905\u092b", "\u094d\u0930\u0940"], ["\u0915\u094d\u0937", "\u093e"], ["\u0928", " \u092a"], ["\u0928", "\u0930 "], ["\u092d\u0942", "\u092e\u093f\u0915"], ["\u0932\u0917\u093e", "\u090f "], ["\u0935\u093e\u0930", "\u0940 "], ["\u0938", "\u092b\u0932"], ["\u2013", " "], [" \u0915\u0940 ", "\u091c\u093e\u090f\u0917\u0940\u0964"], ["2", "4 "], ["2", "6"], ["3", "1"], ["\u0907\u0938 ", "\u0926\u094c\u0930\u093e\u0928"], ["\u091a\u093f\u0915\u093f\u0924\u094d", "\u0938\u093e "], ["\u091a\u094b", "\u0930\u0940"], ["\u092d\u0930\u094d", "\u0924\u0940"], ["\u0935\u0930\u094d\u0937", "\u0940\u092f"], ["\u0938\u0902\u0916\u094d\u092f", "\u093e \u092e\u0947\u0902 "], ["\u0939\u093e", "\u0947"], ["\u0939\u0948", ","], ["\u0939\u094b", "\u0915\u0930 "], ["\u094d\u0930\u093e", "\u0907"], [" \u0938", "\u092e\u093e\u091c"], [", \u0938", "\u0940"], ["3", "0 "], ["\u091c\u093f\u0938\u0915", "\u093e "], ["\u0926\u093f", "\u090f\u0964"], ["\u092c", "\u0930\u094d"], ["\u092d\u0941\u0917\u0924", "\u093e\u0928"], ["\u092e\u0947", "\u0939"], ["\u0932", " \u0915\u093e "], ["\u0938\u094d", "\u0924\u094d\u0930"], ["\u094b\u0902 \u0915\u0947 ", "\u0938\u093e\u0925"], ["\u0924\u0940 ", "\u0939\u0948\u0902\u0964"], ["\u0924\u094d", "\u0938\u093e\u0939"], ["\u092c\u0926", "\u0932"], ["\u0939\u0941\u0906", "\u0964"], [" \u0915\u0940 ", "\u092e\u093e\u0902\u0917"], [" \u0915\u094b", "\u0930\u094d\u091f"], [" \u0915\u094d\u0930", "\u093f\u0915"], ["\u0905", "\u0927\u094d\u092f\u0915\u094d\u0937 "], ["\u0906\u0935\u0936\u094d\u092f", "\u0915 "], ["\u0909\u092a", "\u091a\u093e\u0930"], ["\u0917\u0908 ", "\u0925\u0940\u0964"], ["\u091b", "\u0942"], ["\u091c\u093e\u0928\u0915\u093e\u0930", "\u0940 \u0915\u0947 "], ["\u0924\u094d\u092f", "\u0941"], ["\u0927", "\u0930 "], ["\u0928\u093f", "\u0935\u093e\u0930"], ["\u092d", "\u0930 \u092e\u0947\u0902 "], ["\u0938\u093e", "\u0926"], [" \u0915\u093e\u0930", "\u094b"], [" \u0915\u093e\u0930", "\u094d\u092f "], [" \u0915\u0947 ", "\u0916\u093f\u0932\u093e\u092b "], [" \u0915\u0947 ", "\u092c\u0940\u091a"], ["20", "19"], ["\u091f", "\u0915"], ["\u0924", ", "], ["\u0928\u0947 ", "\u0914\u0930 "], ["\u092c\u093e", "\u091c\u093e\u0930 "], ["\u0930\u0939", "\u0928\u0947 \u0935\u093e\u0932\u0947 "], ["\u0932\u094b\u0917", "\u094b\u0902 \u0915\u093e "], ["\u0938\u0902\u092c\u0902\u0927", "\u093f\u0924 "], ["\u0947\u0902", " \u0915\u093e\u0947 "], [" \u092e\u093e\u0930\u094d", "\u091a"], [" \u0939\u0941", "\u090f "], ["\u091a", "\u093e\u0930\u094d"], ["\u0923 ", "\u0914\u0930 "], ["\u0926", "\u0932 "], ["\u092b\u093f", "\u0930 \u0938\u0947 "], ["\u092d\u093e", "\u0937"], ["\u0935\u093e", "\u0938 "], [" \u0915\u0930 \u0938\u0915", "\u0924\u0947 \u0939\u0948\u0902\u0964"], [" \u0915\u0947 ", "\u092c\u0940\u091a "], [" \u0938\u0947 ", "\u0905\u0927\u093f\u0915 "], ["\u0905\u092d\u093f\u092f", "\u093e\u0928"], ["\u0907\u0938", " \u092a\u094d\u0930"], ["\u0911\u0928", "\u0932\u093e\u0907\u0928 "], ["\u0916", "\u0924\u094d\u092e"], ["\u0924\u0939\u0938\u0940", "\u0932"], ["\u0924\u094d", "\u0935 "], ["\u092e\u093e", "\u0923"], ["\u092e\u0941", "\u091d\u0947 "], ["\u0932\u0917\u093e", "\u0915\u0930 "], ["\u0935\u094d\u092f", "\u0915\u094d\u0924\u093f "], [" \u0938\u094d", "\u0924"], ["\u0915", "\u0921\u093c"], ["\u0918\u093e", "\u091f"], ["\u091c", "\u0932 "], ["\u091c\u093e", "\u092c"], ["\u091c\u093f", "\u0928 "], ["\u0924\u093e\u0913\u0902", " \u0915\u094b "], ["\u0928\u093f", "\u0937\u094d"], ["\u092a\u094d\u0930", "\u092c\u0902\u0927"], ["\u092c\u0924\u093e \u0926\u0947", "\u0902"], ["\u0930", "\u091c\u093f"], ["\u0947", "\u0915 "], [" \u092a", "\u0902"], [" \u092e\u0941", "\u0916\u094d\u092f"], [" \u092e\u0947\u0902 ", "\u092d\u0940 "], [" \u0938\u0926", "\u0938\u094d\u092f"], [" \u0938\u093e\u092e", "\u0928\u0947 "], ["2", "8"], ["\u091c\u093e\u0917\u0930\u0942", "\u0915"], ["\u0921", "\u093e\u092f"], ["\u0921", "\u0947\u091f"], ["\u0928", "\u0948"], ["\u092c", "\u091a\u093e"], ["\u092c\u094b", "\u0927"], ["\u092d\u093e", "\u0935 "], ["\u0930", "\u093e\u0928"], ["\u0930\u093e", "\u0930 "], ["\u094c", "\u0926\u094d\u092f\u094b\u0917\u093f\u0915"], [" \u0915", "\u093f\u092f\u093e"], [" \u0915\u093e\u0902\u0917\u094d\u0930\u0947", "\u0938 "], [" \u091c", "\u093e\u0930\u0940"], [" \u092a\u0941", "\u0924\u094d\u0930 "], ["\u0905\u0902", "\u0924\u0930\u094d"], ["\u0905\u0932\u0917", "-\u0905\u0932\u0917"], ["\u090f\u0915", "-"], ["\u0915\u093e\u0930\u094d\u092f", "\u0915\u094d\u0930\u092e"], ["\u091b\u093e", "\u0924\u094d\u0930 "], ["\u091c\u094b", "\u0916\u093f"], ["\u0926\u0947\u0916", "\u093e "], ["\u0927", "\u0942"], ["\u092c\u0948\u0920", "\u0915 "], ["\u092d\u0935\u093f\u0937", "\u094d\u092f"], ["\u092e\u0947\u0902", "\u091f "], [" \u092a\u094d\u0930\u0924\u093f\u0936", "\u0924 "], [" \u0939", "\u094b\u0902"], [" \u0939\u094b", "\u0928\u0947 \u0915\u0940 "], ["9", "0"], ["\u091a", "\u0942"], ["\u0924\u0941", " "], ["\u0928", "\u0902\u0926"], ["\u092a\u0939", "\u0932\u0947"], ["\u0935\u093f", "\u091c\u092f"], ["\u0936", "\u0948"], ["\u0936\u0941", "\u0932\u094d"], ["\u0938", "\u0902\u0917\u0920"], ["\u0938", "\u094d\u092f "], ["\u0938\u093e", "\u0902"], ["\u0938\u094b\u092e", "\u0935\u093e\u0930 \u0915\u094b "], ["\u0939", "\u0949"], [" \u0905", "\u0915\u094d\u091f\u0942"], [" \u0915\u0930", "\u0924\u093e \u0939\u0948\u0964"], ["\u0902\u091a", "\u093e\u0932"], ["\u0905", "\u0917\u094d\u0930"], ["\u0915", "\u093e\u0902"], ["\u0915\u094d", "\u0924\u093e "], ["\u0917", "\u0943"], ["\u0924\u093e ", "\u0939\u0948."], ["\u092b\u0932", "\u0938\u094d\u0935\u0930\u0942\u092a"], ["\u092c\u0941", "\u0928\u093f\u092f\u093e\u0926\u0940 "], ["\u092f\u094b", "\u091c\u0928"], ["\u0935\u093f", "\u0935\u093e\u0926"], ["\u0938", "\u092c\u094d"], ["\u0939", "\u091f"], ["\u0939\u093e", "\u0908"], [" \u0915\u093e", " \u0915\u093e\u092e"], [" \u0915\u094d\u0937\u0947\u0924\u094d\u0930", "\u094b\u0902 \u092e\u0947\u0902 "], ["\u0906\u092f\u094b", "\u091c\u093f\u0924"], ["\u0907\u0938\u0938\u0947 ", "\u092a\u0939\u0932\u0947 "], ["\u0908", "\u0902\u0927"], ["\u091c\u093f\u0938\u0915", "\u0940 "], ["\u0928\u093f", "\u0930"], ["\u092f", "\u0947"], ["\u0930\u093f", "\u0902\u0917"], ["\u0937\u094d\u091f", "\u094d\u0930 "], ["\u0947 ", "\u092e\u0947\u0902"], [" \u092a\u094d\u0930", "\u092d\u093e\u0935"], [" \u0938", "\u092c"], ["3", "5"], ["\u0905", "\u0938\u094d\u092a\u0924\u093e\u0932 "], ["\u0906\u0908 ", "\u0939\u0948\u0964"], ["\u0917\u090f ", "\u0925\u0947\u0964"], ["\u091c", "\u092c\u094d"], ["\u0928\u0935", "\u0902\u092c"], ["\u092a\u0924\u094d", "\u0928\u0940 "], ["\u092b\u0948", "\u0932"], ["\u092c", "\u093f\u0915"], ["\u092c\u093e", "\u0902\u0927"], ["\u092c\u0948\u0920", "\u0915"], ["\u092e\u093e", "\u0924\u094d\u0930 "], ["\u092e\u0948", "\u0902"], ["\u092f", "\u093e\u0928\u0940 "], ["\u0930\u093e", "\u092c "], ["\u0930\u093e\u091c", "\u0938\u094d\u0925\u093e\u0928"], ["\u0935\u093f\u0927", "\u093e\u092f\u0915"], ["\u093e", " \u0915\u093e "], ["\ufffd", "\ufffd"], ["\u091a\u0941\u0915", "\u093e \u0939\u0948\u0964"], ["\u0924", "\u093e\u0930\u0940"], ["\u0924\u0941\u0932", "\u0928\u093e \u092e\u0947\u0902 "], ["\u0924\u0947 \u0939\u0948\u0902", "."], ["\u0927", "\u094d\u092f\u093e"], ["\u0928", "\u0942"], ["\u0932\u0947", "\u0915\u0930"], ["\u0938\u0941", "\u092c\u0939"], ["\u093e", "\u0908"], ["\u093e\u092f", "\u093e \u0939\u0948\u0964"], [" \u0915\u0930 \u0926\u093f\u092f\u093e ", "\u0939\u0948\u0964"], ["\u0905\u0902\u0924\u0930\u094d\u0930\u093e\u0937\u094d\u091f\u094d\u0930", "\u0940\u092f"], ["\u0909\u092a", "\u092d\u094b"], ["\u091a", "\u0902\u0926"], ["\u0924", "\u093e\u0964"], ["\u0924\u0940", "\u0938\u0930"], ["\u0925", "\u094b"], ["\u0926\u0941\u0928\u093f\u092f\u093e", " \u0915\u0947 "], ["\u092e\u093e", "\u0938\u094d\u0915"], ["\u0932\u0947 ", "\u092e\u0947\u0902 "], ["\u0935\u0948", "\u091c\u094d\u091e\u093e\u0928"], ["\u0938\u0947 ", "\u0939\u0940 "], ["\u0938\u094d\u0925", "\u093e\u0928 "], [" \u091c", "\u0928\u0935"], [" \u092a\u0930", "\u0947\u0936"], [" \u092a\u094d\u0930", "\u092c\u0902\u0927"], [" \u092c\u091c\u0947 ", "\u0924\u0915 "], ["\u0905", "\u0930\u094d"], ["\u0917\u094d\u0930\u093e", "\u0939"], ["\u091a", "\u0902\u0926\u094d\u0930"], ["\u091c\u093f\u0928", "\u094d\u0939\u0947\u0902 "], ["\u0928", "-"], ["\u0928\u093f\u0930\u094d\u0923", "\u092f "], ["\u092b\u0940\u0938", "\u0926\u0940 "], ["\u092d\u093e", "\u0908 "], ["\u092e", "\u0928\u094b"], ["\u092e\u0941", "\u0902\u092c"], ["\u092f", "\u0939\u093e\u0902"], ["\u0930", "\u0902\u0917"], ["\u0935", "\u0938\u0942"], ["\u0936\u094d\u0930", "\u0940 "], ["\u0938", "\u0930 \u092a\u0930 "], ["\u0938\u092e", "\u0938\u094d\u092f\u093e "], ["\u0938\u093e", "\u092c"], [" \u0915\u0930\u093e", "\u0908 "], [" \u091c", "\u093f\u0932"], [" \u092a", "\u093e\u0928\u0940 "], [" \u092c", "\u0922\u093c"], [" \u0938\u093f\u0902\u0939", ", "], ["\u0906", "\u0926\u0947\u0936"], ["\u0917\u094d\u0930\u093e", "\u092e "], ["\u0926\u0947\u0916", "\u092d\u093e\u0932"], ["\u0928\u0940", " \u0915\u0947 "], ["\u0928\u094d", "\u0926\u094d\u0930"], ["\u092a\u0941\u0930", " \u0915\u0947 "], ["\u092a\u094b", "\u0937\u0923"], ["\u092c\u093e", "\u091c\u093e\u0930 \u092e\u0947\u0902 "], ["\u092d\u0940 ", "\u0928\u0939\u0940\u0902 "], ["\u092e\u0941", "\u0926\u094d"], ["\u0932\u0948", "\u0902\u0921"], ["\u0936\u093e\u092e\u093f\u0932 ", "\u0939\u0948\u0902\u0964"], ["\u0938", "\u092c"], [" \u092a\u094d\u0930", "\u0926\u093e\u0928"], ["o", "n"], ["\u0906", "\u090f\u0964"], ["\u0909\u0926\u093e", "\u0939\u0930\u0923"], ["\u0916", "\u094b\u0932"], ["\u091b", "\u0941"], ["\u092c\u094d\u0930", "\u093f"], ["\u0930\u0939", "\u0947\u0917\u093e\u0964"], ["\u0930\u093e", "\u0939\u0941"], ["\u0935\u0948", "\u0915\u094d\u0938\u0940"], ["\u093e\u092f\u093e ", "\u0917\u092f\u093e\u0964"], ["\u0940 ", "\u0938\u0947 "], ["\u0947\u0902", " \u0915\u0940 "], [" \u0915\u0930", "\u0947\u0902 "], [" \u0915\u0947 \u0906", "\u0927\u093e\u0930 \u092a\u0930 "], [" \u0915\u0947 \u0938\u093e\u0925", " \u0939\u0940 "], ["\u0907\u0938 ", "\u0905\u0935"], ["\u0917", "\u094c\u0930"], ["\u091f\u094d\u0930", "\u094b"], ["\u0924", "\u092e"], ["\u0924\u0915", "\u0928\u0940"], ["\u0924\u0947 ", "\u092e\u0947\u0902 "], ["\u0927\u094d\u092f", "\u093e\u0928"], ["\u092a\u093e\u0932", "\u0928"], ["\u092e", "\u0928 "], ["\u0938", "\u0932 "], ["\u0938\u094d\u091f", "\u094d\u0930\u0947"], ["\u0939\u093e\u0932", " \u0939\u0940 "], [" \u0915\u0943\u0937\u093f", " "], [" \u0915\u0947 \u092c\u093e", "\u0935"], [" \u092a\u093e", "\u0902\u091a"], [" \u092a\u093e\u0930", "\u094d\u091f"], [" \u092a\u0942\u0930\u094d", "\u0935"], [" \u0938\u092e", "\u092f "], ["\u0905", "\u0938\u0930 "], ["\u0909", "\u092e"], ["\u0909\u0928\u094d\u0939\u094b\u0902", "\u0928\u0947 \u092c\u0924\u093e\u092f\u093e \u0915\u093f "], ["\u090f\u0915 ", "\u092c\u093e\u0930 "], ["\u0915\u093e", "\u0936 "], ["\u0916\u093e", "\u0926\u094d\u092f"], ["\u0917\u093e\u0902", "\u0927\u0940 "], ["\u0918", "\u0930\u0947\u0932"], ["\u0920", " "], ["\u0924\u093e\u092a", "\u092e\u093e\u0928 "], ["\u0928\u0940", ", "], ["\u092e", "\u093f\u0924 "], ["\u092f", "\u0902"], ["\u0935\u0940", "\u0930 "], ["\u0938\u094d\u0925\u093e\u0928", "\u0940\u092f "], ["\u0947", "\u091f "], [" \u092a\u093f", "\u091b\u0932\u0947 "], [" \u092c", "\u093f\u0932"], ["2", "."], ["\u0902\u0917", "\u0947"], ["\u0907\u0938", " \u0938\u0902\u092c\u0902\u0927"], ["\u091f", "\u0932 "], ["\u0924\u0930\u092b", " \u0938\u0947 "], ["\u0924\u0948", "\u0928\u093e"], ["\u0926\u093e\u0927\u093f\u0915", "\u093e\u0930\u0940 "], ["\u0926\u0947", "\u0935\u0940"], ["\u092c\u0947", "\u091a"], ["\u0930", "\u0928 "], ["\u0930\u093e", ", "], ["\u0936", "\u093e\u0928"], ["\u0936\u093e\u0902", "\u0924\u093f"], ["\u0938", "\u0935"], ["\u0938\u0939", "\u093e\u092f"], ["\u0938\u0948", "\u0902\u092a\u0932 "], ["\u0938\u094d\u0915", "\u0943"], ["\u0939\u093e", "\u0947 "], [" \u0905", "\u092a\u094d\u0930\u0948"], [" \u0915", "\u094c"], [" \u0915\u093f", "\u0924"], [" \u0915\u0940 \u0915", "\u0940"], [" \u092a\u0942", "\u0930\u0947 "], [" \u0938\u0947", "\u0935\u093e "], [" \u0939", "\u092e"], ["2", "9"], ["\u0906", "\u092a "], ["\u0906", "\u092c\u093e"], ["\u0907\u0928", "\u0915\u0947 "], ["\u0909\u0926\u094d", "\u0926\u0947\u0936"], ["\u0915\u094d", "\u0938 "], ["\u0915\u094d\u0930", "\u092e "], ["\u091c\u094b", "\u0930 "], ["\u0926\u093f\u092f\u093e ", "\u0917\u092f\u093e\u0964"], ["\u092a", "\u0932"], ["\u092c", "\u0928\u0947 "], ["\u092e\u0941\u0924\u093e\u092c", "\u093f\u0915 "], ["\u0932\u094d", "\u0938"], ["\u0938\u092e", "\u093e\u0928"], ["\u0938\u0940", "\u090f\u092e"], [" \u0905", "\u0902"], [" \u0915\u0930", "\u0928\u0940 "], ["\u0909\u0924\u094d", "\u0924\u0930 "], ["\u0915", "\u0949"], ["\u0918", "\u0930 \u0938\u0947 "], ["\u091c", "\u093e\u092f"], ["\u0926\u0930", "\u0905"], ["\u0927\u093f\u0915", " "], ["\u0928\u093f\u0930\u0940\u0915\u094d\u0937", "\u0923"], ["\u092c\u093e", "\u0939"], ["\u092e\u093e", "\u0902 "], ["\u0930\u094b\u091c\u0917", "\u093e\u0930 "], ["\u0935\u0939\u0940\u0902", ", "], ["\u0935\u094d\u092f\u0935", "\u0938\u093e\u092f"], ["\u0939\u093f\u0938\u094d", "\u0938\u093e "], [" \u0915\u0947\u0938 ", "\u0926\u0930\u094d\u091c"], [" \u092a\u0942\u0930\u094d", "\u0935 "], [" \u092e", "\u0902\u0926\u093f"], ["\u0902", "\u091f "], ["\u0902\u0926", "\u093e"], ["\u090a\u0930\u094d", "\u091c\u093e "], ["\u0915\u094d\u0937", "\u093e "], ["\u0916", "\u094d\u092f\u093e"], ["\u0928\u093f\u092f", "\u0941"], ["\u092b", "\u0949"], ["\u092e\u094c\u0924 \u0939\u094b ", "\u0917\u0908\u0964"], ["\u092f", "\u093e\u0964"], ["\u092f\u0941", "\u0935\u093e"], ["\u0930\u0942\u092a", " \u0938\u0947"], ["\u0932\u0949\u0915\u0921\u093e", "\u0909\u0928 "], ["\u0935\u093e\u092f\u0930", "\u0938 \u0915\u0947 "], ["\u0936", "\u0915\u094d\u0924\u093f"], ["\u0936\u0941\u0930\u0942", " \u0915\u0930 "], ["\u0938", "\u092e "], ["\u0938", "\u093f\u0915"], ["\u0939\u094b", "\u0924\u093e \u0939\u0948\u0964"], ["\u0947\u0936", "\u094d"], [" \u0915\u0940 ", "\u091c\u093e \u0930\u0939\u0940 \u0939\u0948\u0964"], [" \u092a\u0930", "\u094d\u092f\u093e"], ["1", "4 "], ["\u0905", "\u092d"], ["\u0916", "\u0942"], ["\u091f", " \u0915\u0940 "], ["\u0921", "\u0930 "], ["\u0928\u093e", "\u092e\u093e"], ["\u0928\u093f", "\u0926\u0947\u0936"], ["\u092a\u094b", "\u0938\u094d\u091f"], ["\u092a\u094d\u0930", "\u0924\u093f "], ["\u092c", "\u094d\u0930\u093e"], ["\u092c\u093e\u0924", "\u091a\u0940"], ["\u092d", "\u094d\u0930"], ["\u092e\u093e\u092e\u0932\u093e ", "\u0926\u0930\u094d\u091c"], ["\u0935\u093e\u0938\u094d\u0924", "\u0935 "], [" \u0915\u0947 ", "\u092a"], ["..", "."], ["\u0902\u0926", "\u0940"], ["\u0905", "\u0927\u093f"], ["\u0906\u092a", "\u0915\u094b "], ["\u0906\u0930\u094b", "\u092a\u0940"], ["\u0915", ", "], ["\u0915", "\u094b\u0902 \u092e\u0947\u0902 "], ["\u091c\u0948", "\u0938\u0940 "], ["\u0926", "\u092e"], ["\u0926\u093f\u0928", " \u092a\u0939\u0932\u0947 "], ["\u0928\u093f", "\u0917\u0930"], ["\u092a\u0930\u093f\u0937", "\u0926"], ["\u092a\u0939\u0941\u0902\u091a", "\u0947 "], ["\u092a\u0942", "\u0930\u093e "], ["\u092d\u093e", "\u0938\u094d"], ["\u0930\u093f", "\u090f "], ["\u093e\u0932", "\u0941"], [" \u0905", "\u0928\u0941"], [" \u0905\u0917", "\u0938\u094d\u0924"], [" \u0915\u0930", "\u0935"], [" \u0938\u094d", "\u0935\u0940"], [" \u0939", "\u0947"], ["\u0908", " \u092e\u0947\u0902 "], ["\u0917", "\u0930\u094d\u092e"], ["\u0917", "\u0947\u091f"], ["\u0924\u093e ", "\u0939\u0948"], ["\u0924\u093f\u092f", "\u094b\u0917"], ["\u0926\u0943", "\u0937\u094d\u091f"], ["\u0930", "\u094d\u092f"], ["\u0930\u093e\u091c", "\u094d\u092f "], ["\u0935\u093e", "\u0930 \u0938\u0947 "], ["\u0938\u0930", "\u092a\u0902\u091a"], ["\u0938\u094d\u0925", "\u093f\u0924\u093f "], ["\u0939", "\u0932\u094d"], ["\u093e\u0930", "\u093e "], ["\u0942", "\u0921"], ["\u0947\u0917", "\u093e "], [" \u0905\u0927\u093f\u0915", "\u093e\u0930\u0940 "], [" \u0915\u093e", " \u0915\u093e\u092e "], [" \u0915\u094b\u0908 ", "\u092d\u0940 "], [" \u092a\u0939", "\u0932\u0947"], ["\u0905\u0924\u093f", "\u0930\u093f\u0915\u094d"], ["\u0907\u0924", "\u0928\u093e "], ["\u0909\u0938", "\u0938\u0947 "], ["\u0910", "\u0938\u093e"], ["\u0915\u0930", "\u0923 "], ["\u0915\u093f", "\u0938\u094d\u0924\u093e\u0928"], ["\u091b\u094b", "\u091f\u0947 "], ["\u091d", "\u0941"], ["\u0926\u093f\u0928", "\u094b\u0902 \u092e\u0947\u0902 "], ["\u0928", "\u0935\u093e"], ["\u0928\u0940", "\u091a\u0947 "], ["\u092c\u0930", " \u0915\u094b "], ["\u092e\u093e\u092e\u0932\u0947", " \u0915\u0940 "], ["\u092e\u094b", "\u0926\u0940 "], ["\u092e\u094d", "\u092a"], ["\u0930\u094b", "\u0939"], ["\u0935\u093e\u0932", "\u0947"], ["\u0935\u093f\u0927\u093e\u0928\u0938", "\u092d\u093e "], ["\u0938", "\u094c"], ["\u0938\u092e\u094d", "\u092e\u093e\u0928"], [" \u0905", "\u092c "], [" \u0905", "\u092d\u093f\u092f"], [" \u0915", "\u092e\u0947"], [" \u0915\u0930 ", "\u0930\u0939\u0940 \u0939\u0948\u0964"], [" \u0915\u093f\u0938\u093e\u0928", "\u094b\u0902 \u0915\u094b "], [" \u0915\u0948", "\u0938\u0947 "], [" \u0938\u0939", "\u093e\u092f"], ["\u0907", "\u0938\u094d"], ["\u0914\u0930", " \u0915"], ["\u091a", "\u092f"], ["\u0926\u0947", "\u0935\u0940 "], ["\u0928\u0947 \u0935\u093e\u0932", "\u093e "], ["\u092b\u093e", "\u0907"], ["\u092e\u093e", "\u0948"], ["\u0930", "\u091c"], ["\u0932 ", "\u0914\u0930 "], ["\u0932\u0915\u094d\u0937", "\u094d"], ["\u0935", "\u0930\u093f"], ["\u0936", "\u093f\u092f"], ["\u0936\u093e\u0902", "\u0924"], ["\u0939\u0941\u090f ", "\u0939\u0948\u0902\u0964"], [" \u0905", "\u092e\u0947\u0930\u093f\u0915"], [" \u0915\u094b", " \u092a\u094d\u0930"], [" \u0938", "\u0902\u091a\u093e\u0932"], ["\u0906", "\u092e"], ["\u0915", "\u0932"], ["\u0917\u0902", "\u091c"], ["\u091c\u093e", "\u0924\u0947 \u0939\u0948\u0902\u0964"], ["\u091c\u093e\u0928\u0947", " \u0915\u0940 "], ["\u091f\u093f", "\u0935"], ["\u0924\u093e", ", "], ["\u0924\u093e", "\u091b"], ["\u0926", "\u093f\u092f\u093e"], ["\u0928", "\u0926\u0940 "], ["\u092a\u0941\u0930", "\u093e "], ["\u092a\u0942\u0930\u094d", "\u0923 "], ["\u092c", "\u0926\u094d\u0927"], ["\u092c\u093e", "\u0915\u0940 "], ["\u0932", "\u093e\u0928"], ["\u0935\u093f", "\u0935\u093e"], ["\u0938\u093f\u0902\u0939", ", "], ["\u0938\u0941", "\u0928"], ["\u0939\u093e", "\u0938\u093f\u0932"], ["\u0939\u0948, ", "\u0914\u0930 "], ["\u093e\u0928\u0947", "\u0902 "], [" \u0938\u0947 ", "\u0939\u0940 "], ["\u0905\u092c ", "\u0924\u0915"], ["\u0905\u0935\u0948", "\u0927 "], ["\u0915", "\u094b\u0902 \u0915\u0947 "], ["\u091c\u093e ", "\u0930\u0939\u0947 \u0939\u0948\u0902\u0964"], ["\u0924\u093e ", "\u0925\u093e\u0964"], ["\u0928\u093e", "\u0935"], ["\u0928\u093f", "\u0902\u0917"], ["\u0928\u093f\u0930\u094d\u0927\u093e\u0930", "\u093f\u0924"], ["\u092c", "\u0930\u093e\u092e\u0926"], ["\u092c\u091c", "\u093e\u092f"], ["\u092e\u0941", "\u0915\u093e\u092c"], ["\u0930", " \u0915\u093e "], ["\u0930\u0940", ", "], ["\u0932\u0902\u092c", "\u0947 "], ["\u0938\u0902\u0915\u094d\u0930\u092e", "\u093f\u0924"], ["\u0938\u092e", "\u093f\u0924\u093f"], ["\u0939\u094b\u0917", "\u093e "], ["\u094b", "\u0930 "], [" \u0915\u093e", "\u0945"], [" \u0915\u093e\u0930\u094d\u0930", "\u0935\u093e\u0908 "], [" \u0915\u094b\u0930\u094b\u0928\u093e", " \u0915\u0947 "], [" \u0915\u094d", "\u0932"], [" \u092a\u0930\u093f", "\u0935\u093e\u0930"], [" \u092c", "\u0928\u093e"], [" \u0938\u0902\u0915\u094d\u0930\u092e", "\u093f\u0924 "], [" \u0938\u093f\u0924", "\u0902\u092c"], [" \u0938\u0941", "\u092c\u0939 "], [" \u0939\u094b", "\u0928\u0947"], [" \u0939\u094b", "\u0928\u0947 \u0938\u0947 "], ["\u0909", "\u0938\u0940 "], ["\u0909\u0928", "\u092e\u0947\u0902 "], ["\u0916", "\u0930\u093e\u092c"], ["\u0917\u0941", "\u091c"], ["\u091a", "\u0932\u0947 "], ["\u0926\u0947\u0936", "\u094b\u0902 \u0915\u0947 "], ["\u092a", "\u0936\u094d\u091a\u093f"], ["\u092f\u0942\u0930\u094b\u092a", "\u0940\u092f"], ["\u0930\u094b", "\u0915 "], ["\u0930\u094d", "\u0921 "], ["\u0935\u0940\u0921", "\u093f\u092f\u094b"], ["\u0936\u093f", "\u0935\u093f"], ["\u0938", "\u0947\u0902"], ["\u0938\u093e\u092e\u0928\u093e", " \u0915\u0930\u0928\u093e "], [" \u0915\u094d\u0935\u093e\u0930\u0947\u0902\u091f\u093e", "\u0907\u0928"], [" \u0915\u094d\u0937", "\u092e"], [" \u0938\u094d", "\u092a"], ["\u091c\u093e", "\u092e "], ["\u0928\u093e", ", "], ["\u092a\u0930\u093f", "\u0923\u093e\u092e"], ["\u0930", "\u0947\u0902"], ["\u0930\u0939", "\u0947"], ["\u0932", " \u0915\u094b "], ["\u0932 ", "\u0928\u0947 "], ["\u0938\u0941\u0935\u093f\u0927", "\u093e"], [" \u0905\u092a", "\u0928\u0940 "], [" \u0915\u0947 ", "\u092e\u093e\u0927\u094d\u092f\u092e \u0938\u0947 "], [" \u0939\u094b\u0917", "\u0940\u0964"], ["\u0917\u093f", "\u0930\u093e\u0935"], ["\u0918\u094b", "\u0937\u093f\u0924"], ["\u0921", "\u094d"], ["\u0927", "\u092e"], ["\u0928\u093f\u0930\u094d\u092e\u093e", "\u0923 "], ["\u0932", "\u0940\u0964"], [" \u0905\u0927\u093f\u0915", "\u093e\u0930"], [" \u0915\u0949", "\u0932\u094b"], [" \u0938\u094d\u0924", "\u0930 \u092a\u0930 "], ["2", "5 "], ["\u0906", "\u0907\u0938"], ["\u0906", "\u0916\u093f"], ["\u0921", "\u0942"], ["\u0925", "\u093f\u092f"], ["\u0928\u093f", "\u092a\u091f"], ["\u0928\u0947", " \u0915\u094b "], ["\u0930\u0939\u0947 ", "\u0925\u0947\u0964"], ["\u0935", "\u092f"], ["\u0936\u0930\u094d\u092e\u093e", ", "], ["\u0938", "\u092d\u0940"], ["\u0939", "\u093e\u0932 "], ["\u0939\u094b", "\u0928\u0947 \u0915\u0940 "], [" \u092a\u093e", "\u090f "], [" \u092e\u0940", "\u0921\u093f\u092f\u093e "], [" \u0938\u094d\u0925", "\u093f\u0924\u093f"], [";", " "], ["\u090f", "\u092f\u0930"], ["\u091c\u0940", "\u0924 "], ["\u091f", "\u0932"], ["\u091f\u0940", " \u0915\u0947 "], ["\u0924", "\u0903"], ["\u0924\u093e", "\u0947 "], ["\u0924\u093e\u0913\u0902 ", "\u0928\u0947 "], ["\u0927\u093e\u0930", "\u093e "], ["\u0928", "\u0935\u0940"], ["\u092a\u094d\u0924\u093e", "\u0939"], ["\u092a\u094d\u0930", "\u0926\u0930\u094d\u0936\u0928"], ["\u092b\u094b", "\u0928 "], ["\u092e\u094b\u092c\u093e\u0907", "\u0932 "], ["\u0938", "\u0939\u0940 "], ["\u093f\u092f\u094b\u0902 ", "\u0914\u0930 "], [" \u0915\u093f\u092f\u093e ", "\u091c\u093e\u0928\u093e "], [" \u0938", "\u095c\u0915"], [" \u0938\u0902", "\u0916\u094d\u092f"], ["\u0905\u091a\u094d\u091b", "\u0940 "], ["\u0906", "\u092f\u0941"], ["\u0906", "\u092f\u094b\u0917"], ["\u0924", "\u092d\u0940 "], ["\u0924", "\u0930\u0940 "], ["\u0924\u0947\u091c\u0940 ", "\u0938\u0947 "], ["\u0926\u0943", "\u0937\u094d\u091f\u093f"], ["\u092a", "\u0922\u093c"], ["\u092c\u093f", "\u0939\u093e\u0930 "], ["\u092e\u0939\u0924\u094d\u0935\u092a\u0942\u0930\u094d", "\u0923"], ["\u0938", "\u0921\u093c\u0915"], ["\u094b\u0902 ", "\u092a\u0930"], [" \u0915\u093e\u0930", "\u094d\u0921"], [" \u0915\u093f\u0932\u094b", "\u092e\u0940"], [" \u0939\u094b", "\u0924\u0940 "], ["\u0913\u0902 ", "\u0928\u0947 "], ["\u0915", "\u0942"], ["\u0915 ", "\u0914\u0930 "], ["\u091c\u093c", "\u094d\u092f\u093e\u0926\u093e "], ["\u0924\u0915", " \u092a"], ["\u0924\u093f\u092f\u094b\u0917", "\u093f"], ["\u0925\u093e\u0928\u093e", " \u0915\u094d\u0937\u0947\u0924\u094d\u0930 \u0915\u0947 "], ["\u0926", "\u093e\u092e"], ["\u0926\u0947", "\u0928\u0947 \u0915\u0940 "], ["\u0928\u0947 \u0915\u0939\u093e", ", "], ["\u092a", "\u0923"], ["\u092a\u094d\u0930", "\u0915\u093e\u0936"], ["\u092c\u0926", "\u092e\u093e"], ["\u092e\u0924", "\u0926\u093e\u0928"], ["\u0930\u0916", "\u0940 "], ["\u0930\u0939", "\u0947\u0917\u0940\u0964"], ["\u0932", "\u0921\u093c"], ["\u0935\u093f", "\u091c\u094d\u091e\u093e\u0928"], ["\u0936\u094b", "\u0915 "], ["\u0938\u094b", "\u0936\u0932 \u0921\u093f\u0938\u094d\u091f\u0947\u0902"], ["\u093f", "\u0902\u0917"], [" \u0915\u093e \u0906", "\u092f\u094b\u091c\u0928"], [" \u0915\u093e\u0930\u094d\u092f", "\u0915\u094d\u0930\u092e "], [" \u0915\u093f\u092f\u093e ", "\u0917\u092f\u093e \u0925\u093e\u0964"], [" \u0915\u094b", " \u0938\u0902"], [" \u0938\u092e", "\u0938\u094d\u092f\u093e"], [" \u0938\u094d\u091f", "\u093e"], ["\u0902\u0917", "\u094d"], ["\u0907\u0902\u091f", "\u0930"], ["\u0909\u0924\u094d", "\u0938\u0930\u094d"], ["\u0915\u093f", "\u0938\u093e\u0928"], ["\u0917", "\u0941\u0930"], ["\u091a", "\u0928\u093e"], ["\u091a", "\u093f\u0924"], ["\u091f\u094d\u0930", "\u093e\u0902\u0938"], ["\u0926\u0942\u0938\u0930", "\u093e "], ["\u0926\u0943\u0937\u094d\u091f", "\u093f\u0915\u094b"], ["\u092d\u093e\u0930\u0924", " \u0915\u0947 "], ["\u0935\u093e", ", "], ["\u0935\u093f\u0936\u0947\u0937", "\u091c\u094d\u091e"], ["\u0936\u094d\u0930", "\u092e\u093f\u0915"], ["\u0936\u094d\u0930\u0926\u094d\u0927", "\u093e\u0932\u0941"], ["\u0937", "\u0923 "], ["\u0938\u093e", "\u0927\u0928"], ["\u0938\u093f", "\u091f\u0940 "], ["\u0940", "-"], [" \u0915\u0930", "\u093e "], [" \u091c", "\u0928"], [" \u092e\u0947\u0902 ", "\u0906"], [" \u0938\u0947 ", "\u091c\u0941"], ["\u0906", "\u0907"], ["\u0907\u0938", "\u0932\u093f\u090f"], ["\u0917\u0941", "\u0923"], ["\u091a\u0940", "\u0928 "], ["\u091a\u0940", "\u0928 \u0915\u0947 "], ["\u091f\u094d\u0930", "\u094b\u0932"], ["\u0921", "\u094d\u0930\u093e\u0907"], ["\u092b", "\u093f\u0915"], ["\u092c", "\u0902\u0917"], ["\u092c\u0940", "\u092e\u093e\u0930"], ["\u092e", "\u0936\u0940"], ["\u092e\u0902\u0926\u093f", "\u0930 "], ["\u092e\u0947", "\u0936\u093e "], ["\u0935", "\u0902"], ["\u0935", "\u094d"], ["\u0935\u0930\u093f", "\u0937\u094d\u0920"], ["\u0935\u093e\u092f\u0930", "\u0938 "], ["\u0936\u094b", "\u0927"], ["\u0938", "\u095c\u0915"], ["\u0938\u0941", "\u0927\u093e\u0930"], ["\u093f\u092f", "\u094b\u0902 \u092a\u0930 "], [" \u0915\u0947 \u0905\u0932\u093e", "\u0935\u093e "], [" \u092c\u091c\u0947 ", "\u0938\u0947 "], [" \u0939\u0941", "\u0908\u0964"], ["\u0905\u0928\u0941\u092e", "\u0924\u093f "], ["\u0915", " \u0938\u0947 "], ["\u0927\u094d\u092f", "\u092f"], ["\u0928\u093e\u092e\u093e", "\u0902\u0915"], ["\u092a\u0940\u091b", "\u0947 "], ["\u092c\u093e\u0907", "\u0915 "], ["\u0930\u0939", "\u0940"], ["\u0932\u094d", "\u0921"], ["\u0935\u093f\u0915\u093e\u0938", "\u0936\u0940\u0932 "], ["\u0936\u093e", "\u0926\u0940"], ["\u0938", "\u092b\u093e\u0908"], ["\u0938", "\u0932\u093e"], ["\u0938\u0939", "\u093f\u0924"], ["\u0938\u093f", "\u0930\u094d\u092b "], ["\u0938\u0940", "\u0938\u0940"], ["\u0947\u0902 ", "\u092e\u0947\u0902 "], ["\u094d\u0937", "\u0926"], [" \u0915\u0930\u0928\u0947 ", "\u0914\u0930 "], [" \u0915\u0947", "\u0938"], [" \u092a\u0949\u091c\u093f\u091f\u093f", "\u0935 "], [" \u092e", "\u0908"], ["\u0915", "\u0948"], ["\u0918", "\u0947"], ["\u091c", "\u094d\u092f\u093e\u0926\u093e"], ["\u0926\u0942", "\u0930\u0940 "], ["\u092a\u0930\u0947\u0936", "\u093e\u0928"], ["\u092c\u093e\u0924", " \u0915"], ["\u092e\u0943", "\u0924\u094d\u092f\u0941"], ["\u0930\u0939\u0947 ", "\u0939\u0948\u0902 "], ["\u0930\u093e\u091c\u0928\u0940", "\u0924\u093f\u0915"], [" \u0915\u094b", " \u0915\u092e"], [" \u092e\u093f", "\u0928"], [" \u0938\u094b", "\u092e"], ["\u0909", "\u0902\u091f"], ["\u0909", "\u0915\u094d\u0924 "], ["\u0915\u0941\u091b", " "], ["\u091a", "\u0930\u094d\u091a"], ["\u0924", "\u0938\u094d\u0935\u0940"], ["\u0924\u093e", "\u0915\u093f"], ["\u0925\u093e ", "\u0914\u0930 "], ["\u0926\u093f\u0935", "\u0938"], ["\u0927", "\u093e\u0928\u0940 "], ["\u0928\u093f", "\u0927"], ["\u092c", "\u093f\u0932\u094d"], ["\u092c\u0926\u0932\u093e", "\u0935"], ["\u092e\u093e", "\u0902\u0921"], ["\u0932\u0949", "\u0915 "], ["\u0936\u0902", "\u0915\u0930 "], ["\u0938", "\u0924"], ["\u0938\u0930\u0915\u093e\u0930 ", "\u0928\u0947 "], ["\u0938\u093e", "\u0926 "], ["\u0938\u094d\u0925\u093f\u0924\u093f", " \u092e\u0947\u0902 "], [" \u0915\u094d\u0930\u093f\u0915", "\u0947\u091f"], [" \u092a\u094d\u0930", "\u0927\u093e\u0928"], [" \u0938\u0902\u0915\u094d\u0930\u092e", "\u0923"], [" \u0938\u0940", "\u091f"], [" \u0939\u094b", "\u0928\u093e "], ["\u0927\u093f\u0915", "\u093e\u0930"], ["\u092a\u0930", "\u0935\u093e"], ["\u092e", ", "], ["\u0932\u094b\u0917", "\u094b\u0902 \u0938\u0947 "], ["\u0935\u093f\u092d\u093e\u0917", " \u0915\u0940 "], ["\u0938\u092c\u0938\u0947 ", "\u091c\u094d\u092f\u093e\u0926\u093e "], ["\u0938\u0940", "\u0938\u0940"], ["\u0939\u094b\u0917", "\u093e"], ["\u093e\u0930\u094d\u0935\u091c\u0928", "\u093f\u0915"], [" \u092a", "\u093e\u0938"], ["\u0909\u092e\u094d\u092e\u0940", "\u0926 "], ["\u0915\u094d", "\u0915\u0930 "], ["\u0924", "\u0942"], ["\u0924\u0930\u0940", "\u0915\u0947 \u0938\u0947 "], ["\u0924\u094d\u092e", "\u0915 "], ["\u0928", "\u0902\u092c"], ["\u0928\u094b", "\u091f\u093f"], ["\u092c", "\u095c\u0940 "], ["\u092c\u091a\u094d\u091a", "\u094b\u0902 \u0915\u094b "], ["\u092c\u093e", "\u091c"], ["\u092d", "\u0902\u0921"], ["\u092e", "\u0915\u093e\u0928"], ["\u092f\u0939", " \u0938\u0941"], ["\u0932", "\u094b "], ["\u0935\u094d\u092f\u093e\u092a", "\u093e\u0930 "], ["\u0939", "\u0930\u093e"], ["\u093e\u0930", "\u0902\u092d"], [" \u0915\u093e", "\u0902"], [" \u0915\u0947 ", "\u092e\u0941\u0924\u093e\u092c\u093f\u0915"], [" \u092c", "\u091a\u094d\u091a"], [" \u0938\u0902", "\u0938\u094d\u0925\u093e"], [" \u0938\u0930\u0915\u093e\u0930 ", "\u0928\u0947 "], ["\u0906\u0935\u0947\u0926", "\u0928 "], ["\u0909\u091a\u094d\u091a", " "], ["\u0917\u0947", "\u0939\u0942"], ["\u091f", "\u0949"], ["\u0924", "\u0941\u0930"], ["\u0924\u093e\u092a", "\u092e\u093e\u0928"], ["\u092a\u094d\u0930", "\u0926\u093e\u0928"], ["\u092d", "\u0935 "], ["\u092f\u093e\u0926\u0935", ", "], ["\u0930", "\u0915"], ["\u0930\u093e", "\u0915"], ["\u0935\u093f\u0924\u094d\u0924", "\u0940\u092f"], ["\u0936\u093f\u0915\u094d\u0937", "\u0915 "], ["\u0936\u093f\u0915\u094d\u0937", "\u0923"], ["\u093f\u0915", "\u093e"], [" \u0915\u093f", "\u090f\u0964"], [" \u0938\u0902\u092c\u0902\u0927", "\u0940 "], ["\"", " "], ["\u0906\u0907\u0938", "\u094b"], ["\u0917\u0930\u0940", "\u092c"], ["\u0918", "\u0942"], ["\u091c\u0930\u0942", "\u0930\u0924"], ["\u0920\u0947", "\u0915\u0947"], ["\u0924\u0947 \u0939\u0948\u0902 ", "\u0914\u0930 "], ["\u092a\u0939", "\u091a\u093e\u0928"], ["\u092b\u093c", "\u094d\u0930\u0940"], ["\u0932\u093e", "\u0947\u0917\u093e"], ["\u0932\u0947", "\u0916"], ["\u0935\u093f\u0937", "\u092f"], ["\u0936", "\u094d\u092f\u093e"], ["\u0939\u094b", "\u0964"], ["\u093f\u092f\u093e", "\u0901"], [" \u0915\u0940 ", "\u091c\u093e\u0928\u0915\u093e\u0930\u0940 "], [" \u092a\u0902\u091a", "\u093e\u092f\u0924 "], [" \u0938\u0939", "\u093f\u0924"], ["\u0906\u092a", "\u0915\u0947 "], ["\u0907\u0902", "\u091c\u0940"], ["\u0907\u0938 \u0938\u0902\u092c\u0902\u0927", " \u092e\u0947\u0902 "], ["\u0916\u0941", "\u0932"], ["\u091a\u093e\u0932", "\u0915 "], ["\u091c\u093f\u0932\u093e ", "\u092a\u094d\u0930\u0936\u093e\u0938"], ["\u091c\u094d\u091e\u093e", "\u0924 "], ["\u0921\u093e\u0945", "."], ["\u0924", "\u0925\u093e"], ["\u0925\u093e", "."], ["\u0928\u093f\u0917", "\u092e "], ["\u092a", "\u094c"], ["\u092a\u0930\u093f", "\u0935\u093e\u0930 "], ["\u092a\u0930\u0940\u0915\u094d\u0937", "\u093e "], ["\u092a\u093e", "\u0920"], ["\u092c\u0928\u093e", "\u0915\u0930 "], ["\u092e\u0941\u0936\u094d", "\u0915\u093f\u0932"], ["\u092f\u0941", "\u0926\u094d\u0927"], ["\u0932\u0917", "\u0940 "], ["\u0932\u093e\u0916 ", "\u0930\u0941\u092a\u090f"], ["\u0935", "\u0915\u094d\u0924 "], ["\u0936\u0941", "\u092d"], ["\u0938", "\u0930 \u092e\u0947\u0902 "], ["\u093f\u0932", "\u0940"], ["\u0948", "\u0902\u0921"], ["\u094d\u0937", "\u0947"], ["4", "5"], ["\u0905\u092d\u0940 ", "\u0924\u0915 "], ["\u0915\u0947", "\u091f"], ["\u0917", "\u0947 "], ["\u0917\u0924\u093f", "\u0935\u093f\u0927"], ["\u0917\u0947", "\u0902\u0926"], ["\u0917\u094d\u0930\u093e\u092e\u0940\u0923", "\u094b\u0902 \u0928\u0947 "], ["\u091b\u094b", "\u0921\u093c"], ["\u091c", "\u0935\u093e\u0928"], ["\u091c\u092c\u094d", "\u0924"], ["\u091f\u094d", "\u0935\u0940"], ["\u0924\u093e", "\u0935"], ["\u0925\u093e\u0928", "\u0947 \u092e\u0947\u0902 "], ["\u0928", " \u0915\u0947 \u0932\u093f\u090f "], ["\u0928\u0930\u0947", "\u0902\u0926\u094d\u0930 "], ["\u092a\u0949\u091c\u093f\u091f\u093f", "\u0935 "], ["\u092c\u091a\u094d\u091a", "\u0947 "], ["\u0930\u093e\u091c\u0928\u0940", "\u0924\u093f\u0915 "], ["\u0930\u0941\u092a", "\u092f\u0947 "], ["\u0935\u093e\u0930", "\u0926\u093e"], ["\u0935\u093f", "\u0938\u094d\u0924"], ["\u0938\u0941\u0935\u093f\u0927", "\u093e "], ["\u0939\u093f", "\u0902\u0926"], ["\u0939\u0948\u0902", " \u0915\u093f "], ["\u0939\u094b ", "\u0917\u092f\u093e\u0964"], ["\u093e\u0930\u094d", "\u0921"], ["\u094b\u0902 ", "\u0938\u0947"], [" \u0915", "\u092d\u0940 "], [" \u0915\u093e", "\u091f"], [" \u0915\u093f", "\u0930\u093e"], [" \u0915\u0948", "\u0902"], [" \u0938\u0947", " \u0915\u092e "], ["2", "1 "], ["\u0907\u0902\u091c\u0940", "\u0928\u093f\u092f"], ["\u0909\u092a\u0938\u094d\u0925\u093f\u0924 ", "\u0925\u0947\u0964"], ["\u0909\u0938", "\u092e\u0947\u0902 "], ["\u0911", "\u092b "], ["\u0915\u094d\u0937", "\u0923"], ["\u0916", "\u0940"], ["\u0916\u0924\u0930", "\u093e "], ["\u091c", "\u094d\u092f"], ["\u091c\u0940", "\u0935\u093e"], ["\u0925\u093e", " \u0915\u093f"], ["\u0926\u0915\u094d\u0937\u093f", "\u0923"], ["\u0928\u094d\u092f\u0942", "\u0928"], ["\u092a", "\u0921\u093c "], ["\u092a", "\u0947\u091f"], ["\u092a\u0939", "\u0932\u093e "], ["\u092d\u0930\u094d", "\u0924\u0940 "], ["\u0930\u0941", "\u0915"], ["\u0932", "\u0921\u093c\u093e"], ["\u0932\u0915\u094d\u0937", "\u094d\u092f "], [" \u0915", "\u091f"], [" \u0915\u0930 ", "\u0926\u0947"], [" \u0915\u0947 ", "\u0916\u093f\u0932\u093e\u092b"], [" \u091c", "\u094b "], [" \u092a\u0942", "\u0930\u093e "], [" \u0938\u0930", "\u0915\u093e\u0930\u0940 "], [" \u0938\u093e\u0932", " \u0915\u0940 "], [" \u0939", "\u0930 "], [", ", "\u0932\u0947\u0915\u093f\u0928 "], ["3", "."], ["\u0905\u093e", "\u0948\u0930 "], ["\u0907\u0928\u092e\u0947\u0902 ", "\u0938\u0947 "], ["\u0909\u0926\u093e\u0939\u0930\u0923", " \u0915\u0947 \u0932\u093f\u090f"], ["\u090f", "\u0901 "], ["\u0916\u0947", "\u0924"], ["\u0917\u093e", "\u0907\u0921"], ["\u091b", "\u0939 "], ["\u091d", "\u0947"], ["\u0924\u0915", " \u0915\u0947 "], ["\u0924\u093e", "-"], ["\u0926\u0940", " \u0915\u0947 "], ["\u0928\u093f\u092f", "\u092e "], ["\u0928\u093f\u092f\u0902\u0924\u094d\u0930", "\u0923"], ["\u0928\u093f\u0930\u094d", "\u0935\u093e"], ["\u0928\u0947\u0924\u0943\u0924\u094d\u0935", " \u092e\u0947\u0902 "], ["\u092a", "\u093f\u0924"], ["\u092a\u0930\u094d\u092f\u093e", "\u0935\u0930\u0923"], ["\u092a\u0941", "\u0937\u094d\u091f\u093f"], ["\u092e\u093f\u0932", "\u0947 "], ["\u0930 ", "\u0928\u0947 "], ["\u0930\u0916", "\u0947 "], ["\u0935\u093f\u0926\u094d\u092f", "\u093e\u0932\u092f "], ["\u0936\u094d\u0930", "\u0947"], ["\u0938", "\u0935\u093e\u0932"], ["\u0939\u092e", "\u093e\u0930\u0940 "], ["\u0939\u0930", "\u093e "], ["\u093f\u0915", "\u094d"], ["\u093f\u092f\u093e", "\u0901 "], [" \u0915\u0947 ", "\u091a\u0932\u0924\u0947 "], [" \u0915\u094d\u092f", "\u094b\u0902 "], ["\u0905\u0902\u0924\u093f", "\u092e "], ["\u0905\u0930\u094d\u0925", "\u0935\u094d\u092f\u0935\u0938\u094d\u0925\u093e"], ["\u0907\u0938\u0940 ", "\u0924\u0930\u0939"], ["\u0909\u0928", "\u0938\u0947 "], ["\u090a\u0930\u094d", "\u091c\u093e"], ["\u0915", " \u0915\u0940 "], ["\u091c", "\u092e"], ["\u091c", "\u093e\u0928 "], ["\u091f\u094d", "\u0938"], ["\u0924\u0947 ", "\u0925\u0947\u0964"], ["\u092e\u0947\u0902", " \u0915\u0939\u093e "], ["\u0932\u0917\u093e", "\u0908 "], ["\u0935\u0940\u0921", "\u093f\u092f\u094b "], ["\u0936\u0947", "\u092f\u0930"], ["\u0939\u093e\u0932 \u0939\u0940 ", "\u092e\u0947\u0902 "], ["\u093e\u0928\u0947 ", "\u0938\u0947 "], ["\u0947\u0917", "\u0940 "], ["\u094b\u0902 \u092e\u0947\u0902 ", "\u0938\u0947 "], [" ", "\u0928\u0939\u0940\u0902 "], [" \u0905", "\u0935"], [" \u0915\u093f", "\u0928\u093e\u0930"], [" \u0915\u0940", " \u0915\u094b\u0936\u093f\u0936"], [" \u092a", "\u0924\u093e "], ["\u0905\u091a\u094d\u091b", "\u093e "], ["\u0906", "\u0924"], ["\u091a\u0941\u0928\u093e\u0935", " \u092e\u0947\u0902 "], ["\u091c", " \u0915\u0940 "], ["\u0920", "\u0902\u0921"], ["\u0921\u0949", "\u0915\u094d\u091f\u0930"], ["\u0924\u094d", "\u0924 "], ["\u092a\u093e", "\u0938 \u0915\u0947 "], ["\u092a\u094d\u0930", "\u0924\u094d\u092f"], ["\u092e", " \u0915\u0947 "], ["\u092e", "\u0928\u093e"], ["\u092f\u0942\u0930\u094b\u092a\u0940\u092f", " \u0938\u0902\u0918"], ["\u0935\u0930\u094d\u0937", "\u0940\u092f "], ["\u0935\u093f\u092d\u093e\u0917", " \u0928\u0947 "], ["\u0938\u094d\u092a", "\u093f"], [" \u0915\u0930 ", "\u0930\u0939\u093e "], [" \u0915\u0940 ", "\u0925\u0940\u0964"], ["\u0902\u0926\u093f", "\u0917\u094d"], ["\u0907\u0928", "\u094d\u0939\u0947\u0902 "], ["\u090f\u0902", "\u091f\u0940"], ["\u0911", "\u092b"], ["\u0916\u093e", "\u0926"], ["\u0917\u092f", "\u093e, "], ["\u091c\u093c\u0930\u0942", "\u0930\u0924 "], ["\u091c\u093f\u0932", "\u0947"], ["\u0920", "\u093f"], ["\u0924", "\u093e\u0928"], ["\u0928", "\u0924\u0940"], ["\u0928", "\u093e\u0928"], ["\u092a\u093f", "\u091b"], ["\u092c\u091a\u093e", "\u0935"], ["\u092d\u0942\u092e\u093f\u0915", "\u093e "], ["\u0930\u093e\u0939", "\u0924 "], [" \u0915\u0930 ", "\u0930\u0939\u093e \u0939\u0948\u0964"], [" \u0915\u0930\u094b", "\u095c "], [" \u0915\u0940 ", "\u0905"], [" \u0915\u0947 \u0924\u0939", "\u0924"], [" \u0938", "\u092e\u0941\u0926\u093e\u092f"], [" \u0938\u0947 ", "\u0932\u0947\u0915\u0930 "], [" \u0939", "\u091c\u093e\u0930"], ["\u0905", "\u0924\u093f\u0915\u094d\u0930"], ["\u0905\u0935", "\u0927\u093f"], ["\u0915\u094d", "\u0938\u0930 "], ["\u091d", "\u093e\u0930"], ["\u0924\u0947", "\u091c "], ["\u0926", "\u093e\u0932"], ["\u0926\u0940 ", "\u0917\u0908 \u0939\u0948\u0964"], ["\u0926\u0941\u0915", "\u093e\u0928\u0947\u0902 "], ["\u0928\u093f\u0915", "\u0932 "], ["\u092a\u0940", "\u0921\u093c"], ["\u092c\u0922\u093c\u093e", "\u0935\u093e "], ["\u092e", " \u0915\u0940 "], ["\u092e\u0902\u0921", "\u0932"], ["\u0930\u093e", "\u0937\u094d\u091f\u094d\u0930 "], ["\u0930\u093e\u091c", " "], ["\u0930\u0940 ", "\u092e\u0947\u0902 "], ["\u0930\u094b\u0921", " \u092a\u0930 "], ["\u0932\u093e", "\u0945"], ["\u0935", "\u0947\u0902 "], ["\u0936", "\u0942"], ["\u093f\u092f\u094b\u091c", "\u0928\u093e"], [" \u0915\u094b\u0930\u094b\u0928\u093e ", "\u0935\u093e\u092f\u0930\u0938"], [" \u092c", "\u0939\u0941"], [")", " \u0915\u0947 "], ["\u0909\u0928\u094d\u0939\u094b\u0902", "\u0928\u0947 \u0915\u0939\u093e \u0915\u093f"], ["\u0916\u093e", "\u0938 "], ["\u0917\u094d\u0930", "\u0941"], ["\u092a\u094d\u0930", "\u0915\u093e\u0930"], ["\u092b\u093e", "\u0907\u0928"], ["\u092c\u093e", "\u091c\u0940"], ["\u092e\u0949", "\u0921"], ["\u0936\u093e", "\u0939"], ["\u0938\u094d\u091f", "\u093e"], [" \u0915\u0930\u094b", "\u0921\u093c"], [" \u0915\u0947", "\u0935\u0932"], [" \u0938\u0915", "\u0924\u093e \u0939\u0948\u0964"], [" \u0938\u0939", "\u092f\u094b\u0917"], [" \u0938\u0941", "\u0935\u093f\u0927"], [" \u0939\u091c\u093e\u0930 ", "\u0930\u0941\u092a\u090f "], ["\u0902\u0921", "\u0947"], ["\u0906\u092f\u094b", "\u091c\u093f\u0924 "], ["\u0906\u0935\u0936\u094d\u092f\u0915", "\u0924\u093e "], ["\u0907", "\u0915"], ["\u0907\u0938 \u0905\u0935", "\u0938\u0930 \u092a\u0930 "], ["\u090f\u0915 ", "\u0939\u0940 "], ["\u0915\u094b\u0930\u094b", "\u0928\u093e"], ["\u091a", "\u0930 "], ["\u0924\u0940\u0928", "\u094b\u0902 "], ["\u0925\u0940", "\u0902\u0964"], ["\u0926\u0940 ", "\u0917\u0908\u0964"], ["\u0928\u0947 \u0935\u093e\u0932", "\u0947"], ["\u092a", "\u0924"], ["\u092d\u093e\u0935\u093f", "\u0924"], ["\u0930\u0915\u094d\u0937", "\u093e"], ["\u0930\u0947", "\u0921"], ["\u0935\u093f\u0926\u094d\u092f", "\u0941"], ["\u0938\u0902", "\u0915\u091f"], ["\u0938\u0941\u0930\u0915\u094d\u0937", "\u093e "], ["\u0938\u094d\u091f", "\u0930 "], ["\u0939\u092e", "\u0932\u093e"], ["\u093f\u092f", " "], [" \u092a", "\u0924\u094d\u0930 "], [" \u092a\u0949\u091c\u093f\u091f\u093f", "\u0935"], [" \u092a\u094d\u0930", "\u0916\u0902\u0921"], [" \u0939\u0941\u0906", "\u0964"], ["4", "0 "], ["\u0907\u0938 ", "\u092e\u093e\u092e\u0932\u0947 \u092e\u0947\u0902 "], ["\u0907\u0938\u0915\u0947 ", "\u0938\u093e\u0925 \u0939\u0940 "], ["\u0915\u094d\u0930", "\u093f\u092f\u093e"], ["\u0915\u094d\u0930", "\u0940"], ["\u0917\u0930\u0940", "\u092c "], ["\u091f", "\u094d\u092f\u0942"], ["\u0921\u0940", "\u0938\u0940 "], ["\u0924\u093e\u0932", "\u093e"], ["\u0926\u093f\u0932\u094d", "\u0932\u0940"], ["\u092a\u0942\u091b", "\u0924\u093e\u091b"], ["\u092c\u0928\u093e", "\u0908 "], ["\u092e", "\u0924\u093f"], ["\u092e\u093e", "\u0939 "], ["\u0932\u094c", "\u091f"], ["\u0932\u094d", "\u092a "], ["\u0936\u0932", " \u092e\u0940\u0921\u093f\u092f\u093e "], ["\u0939\u094b", "\u0928\u0947 \u0938\u0947 "], ["\u093f\u0915 ", "\u0930\u0942\u092a \u0938\u0947 "], ["\u200d", "\u092f"], [" \u0915", "\u0930\u094d"], [" \u0915\u093e ", "\u0909\u092a\u092f\u094b\u0917"], [" \u0915\u093f", "\u0936\u094b"], [" \u0915\u094b", "\u0937"], [" \u092e", "\u091c"], [" \u0938", "\u092e\u094d"], [" \u0938\u0915", "\u0924\u0947 \u0939\u0948\u0902\u0964"], [",", " \u0938\u093f"], ["\u0907\u0938 ", "\u092e\u094c\u0915\u0947 \u092a\u0930 "], ["\u0909\u0924\u094d\u0938\u0930\u094d", "\u091c\u0928"], ["\u090f\u0915", " \u0938\u093e"], ["\u0914\u0930 ", "\u0905"], ["\u0915", "\u0908 "], ["\u0915\u0941", "\u0932 "], ["\u0918\u094b\u0937\u0923", "\u093e"], ["\u091c\u0935\u093e", "\u092c "], ["\u0928\u0939\u0940\u0902", "\u0964"], ["\u0928\u093e\u0930\u093e\u092f", "\u0923"], ["\u0928\u0947", "-"], ["\u0928\u0947", "\u0915\u094d"], ["\u092a\u0939\u0941\u0902\u091a", "\u0947\u0964"], ["\u092a\u094d\u0930\u0940", "\u092e"], ["\u092b", "\u0930\u093e\u0930 "], ["\u092e\u0939\u093e", "\u092e\u093e\u0930\u0940 "], ["\u0939\u093e", "\u0901 "], ["\u093e ", "\u0938\u0947 "], ["\u094d\u092f\u093e", "\u0923"], [" \u0905", "\u0928"], [" \u0915\u0930", "\u0935\u093e "], [" \u0915\u0947 \u092c\u093e", "\u0939\u0930 "], [" \u0915\u094b\u0930\u094b\u0928\u093e ", "\u0938\u0947 "], [" \u092a\u094d\u0930", "\u0926\u0947\u0936"], [" \u0939\u094b ", "\u0917\u092f\u093e\u0964"], ["\u0906\u0908", "\u092a\u0940"], ["\u0913\u0902 ", "\u0938\u0947 "], ["\u0917\u092f\u093e", " \u0915\u093f "], ["\u0918\u0930", "\u094b\u0902 \u092e\u0947\u0902 "], ["\u091f\u094d", "\u200c"], ["\u0921", "\u094d\u0930"], ["\u0921\u093c", "\u0940"], ["\u0924\u0924\u094d", "\u0915\u093e\u0932"], ["\u0924\u093e ", "\u0939\u0948 \u0914\u0930 "], ["\u0926", "\u0935\u093e "], ["\u0926\u0930\u0905", "\u0938\u0932"], ["\u0926\u0943\u0937\u094d\u091f\u093f\u0915\u094b", "\u0923"], ["\u0926\u0947", "\u0935 "], ["\u0928", "\u0915"], ["\u092c", "\u0938 "], ["\u092c", "\u0941\u0930"], ["\u092e", "\u093f\u0924"], ["\u092e", "\u0947 "], ["\u092e\u0940", "\u0930 "], ["\u092e\u0948\u0902", "\u0928\u0947 "], ["\u0932\u093e\u0916 ", "\u0930\u0941\u092a\u090f "], ["\u0938", "\u092d\u093e"], ["\u0938\u0941", "\u0927\u093e\u0930 "], ["\u0939\u094b\u0902", "\u0917\u0947\u0964"], ["\u093e\u0928", "\u094d"], ["\u093f\u092f", "\u093e\u0902"], [" \u0915\u093e ", "\u0928\u093f\u0930\u094d\u092e\u093e\u0923"], [" \u0915\u093e\u0947", "\u0930\u093e\u0947"], [" \u0915\u0947 ", "\u092a\u093e\u0938"], [" \u092e", "\u0924"], [" \u0938\u093e\u0932", " \u0915\u0947 "], ["\u0902\u0926", "\u0930"], ["\u0905", "\u0928\u093f\u0935\u093e\u0930"], ["\u0907\u0938\u0915\u0947 ", "\u0932\u093f\u090f"], ["\u0915\u093e", "\u0902\u0917\u094d\u0930\u0947"], ["\u0915\u0941", "\u092e\u093e\u0930 "], ["\u0917\u0941", "\u0928\u093e "], ["\u0921\u093f", "\u0938\u094d"], ["\u0926\u093e\u0927\u093f\u0915", "\u093e\u0930"], ["\u0926\u094d", "\u0926"], ["\u092a\u093e\u0902\u091a", " "], ["\u092a\u0941\u0930", "\u0941"], ["\u092e\u0947", "\u0932"], ["\u0930\u0939", "\u0947\u0902\u0917\u0947\u0964"], ["\u0930\u094b", "\u0921 "], ["\u0932\u093f\u092f\u093e ", "\u0939\u0948\u0964"], ["\u0932\u0947", "\u0936"], ["\u0935\u093f\u0936\u0947\u0937 ", "\u0930\u0942\u092a \u0938\u0947 "], ["\u0939\u0930", "\u093f\u092f\u093e"], ["\u093e\u092e", "\u0940 "], [" \u092a\u094d", "\u0932\u093e"], [" \u092e\u0939", "\u093f\u0932\u093e "], [", \u0938", "\u0930"], ["\u0905", "\u0927\u094d\u092f\u092f"], ["\u0905\u092a", "\u0930\u093e\u0927"], ["\u0906", "\u092a\u0942\u0930\u094d"], ["\u0907\u0924", "\u0928\u0940 "], ["\u0908", "\u0913"], ["\u0909\u0924\u094d", "\u092a\u0928\u094d"], ["\u090f", "\u0902\u0964"], ["\u0917\u0941", "\u092a\u094d\u0924\u093e"], ["\u091a\u0947", "\u0924\u093e\u0935"], ["\u091f", "\u094b "], ["\u0926\u094b", "\u0937"], ["\u0928\u0917", "\u0930 \u092e\u0947\u0902 "], ["\u0928\u0947 ", "\u092c\u0924\u093e\u092f\u093e "], ["\u092a", "\u0928"], ["\u092e\u0939\u0940", "\u0928\u0947 "], ["\u092e\u0947\u0921\u093f\u0915", "\u0932 "], ["\u0935", "\u0924\u094d"], ["\u0935", "\u0939\u0940 "], ["\u0936\u0941\u0932\u094d", "\u0915 "], ["\u0938 ", "\u0914\u0930 "], ["\u093e", "\u091a\u093e\u0930"], [" \u0915\u094b\u0930\u094b\u0928\u093e ", "\u092a\u0949\u091c\u093f\u091f\u093f\u0935"], [" \u092c", "\u093e\u0930"], [" \u0938", "\u092d\u0940"], ["i", "n"], ["\u0902", ", "], ["\u0905\u0928\u0941\u0938\u093e\u0930", ", "], ["\u0915", "\u0930\u0940"], ["\u091a", "\u0932\u0947"], ["\u091c\u0940", "\u0935\u0928 "], ["\u0921\u094d\u092f\u0942", "\u091f\u0940 "], ["\u092a", "\u0936\u0941"], ["\u092a\u0941\u0932\u093f\u0938", " \u0915\u094b "], ["\u0930\u093e", "\u0936\u0928"], ["\u0935\u093f", "\u092a"], ["\u0938", "\u0947\u0902\u091f"], ["\u0938\u091a\u093f", "\u0935 "], ["\u0938\u093e\u092e\u093e\u091c", "\u093f\u0915"], ["\u093e\u0932", "\u093e"], ["\u094b\u0902", " \u0915\u0940 \u0915"], ["\u094b\u0902 \u0915\u0947 ", "\u0938\u093e\u0925 "], [" ", "\u0939\u0948\u0964"], [" \u0915\u093e\u0930\u094d\u092f\u0915\u0930\u094d", "\u0924\u093e "], [" \u0915\u093f\u092f\u093e \u091c\u093e \u0938\u0915", "\u0924\u093e \u0939\u0948\u0964"], [" \u0915\u0940 ", "\u0935\u091c\u0939 \u0938\u0947 "], [" \u092a\u094d\u0930\u093e", "\u092a\u094d\u0924 "], [" \u0938\u093e\u092e", "\u093e\u0928"], ["10", "0 "], ["e", " "], ["\u0907", "\u0935\u0947"], ["\u090f\u0915", " \u0938"], ["\u0913", "\u0930 \u0938\u0947 "], ["\u0917\u093f", "\u0930 "], ["\u0917\u0943", "\u0939"], ["\u091c\u093e\u0928\u0947 ", "\u0935\u093e\u0932\u0947 "], ["\u0924", " \u0915\u093e "], ["\u0924 ", "\u0914\u0930 "], ["\u0924\u0948\u092f", "\u093e\u0930\u0940"], ["\u0924\u094d\u0930", "\u0940 "], ["\u0926\u093f\u092f\u093e ", "\u0925\u093e\u0964"], ["\u092a", "\u0949"], ["\u092d\u093e\u0917", "\u0940"], ["\u092d\u094b", "\u092a\u093e\u0932"], ["\u092e\u093e\u0930", "\u092a\u0940\u091f"], ["\u092e\u0947\u0902", " \u0915\u093e\u092e"], ["\u092f\u093e", "\u091a\u093f\u0915"], ["\u0930\u093e\u091c\u0928\u0940", "\u0924\u093f"], ["\u0932\u093e", "\u092a\u0930\u0935\u093e"], ["\u0936", "\u093e\u0932\u0940 "], ["\u0936\u093e", "\u0926\u0940 "], ["\u0938", ", "], ["\u0938\u0902", "\u0938\u094d\u0925\u093e"], ["\u0938\u0940", "\u092e\u093e "], ["\u0939\u094b ", "\u0930\u0939\u0940 "], ["\u093e\u0928", "\u0940"], ["\u093f\u092f\u093e ", "\u092e\u0947\u0902 "], [" \u0905", "\u092b"], [" \u0915\u0930\u0935\u093e", "\u092f\u093e "], [" \u0915\u094b ", "\u0917\u093f\u0930\u092b\u094d\u0924\u093e\u0930"], [" \u0915\u094b ", "\u0930\u094b\u0915"], [" \u091c\u0941", "\u0932\u093e\u0908"], [" \u0938\u094d", "\u0925\u093e"], ["1", "3 "], ["\u0905\u0927\u093f\u0915", "\u093e\u0930\u0940"], ["\u0908", "-"], ["\u0914", "\u0938"], ["\u091c\u0935\u093e", "\u092c"], ["\u0923", "\u094d\u0921"], ["\u0923\u093e", "\u092e "], ["\u0924\u0930", "\u092b "], ["\u0924\u0939", "\u0924 "], ["\u0926\u093e", "\u0924\u093e "], ["\u0926\u093f\u0938\u0902", "\u092c\u0930 "], ["\u0926\u0941\u0915\u093e\u0928", "\u0926\u093e\u0930"], ["\u0928\u093e", "\u0936"], ["\u092a\u0941\u0930", ", "], ["\u092b\u0948\u0938", "\u0932\u093e "], ["\u092c\u093e", "\u092f\u094b"], ["\u0935\u093f\u0936\u094d\u0935", "\u0935\u093f\u0926\u094d\u092f\u093e\u0932\u092f"], ["\u0936", "\u0930\u0940"], ["\u0936\u0940", "\u0932"], ["\u0938", "\u092e\u0947\u0924 "], ["\u093e\u0902", "\u0924"], ["\u093f\u092f", "\u0947 "], ["\u094b\u0902", " \u0915\u0947"], ["\ufffd", "\ufffd"], [" \u0915\u0930 \u0926\u093f\u092f\u093e ", "\u0917\u092f\u093e \u0939\u0948\u0964"], [" \u0915\u0947 ", "\u0938\u092d\u0940 "], [" \u0915\u0947 \u092a\u094d\u0930", "\u092f\u093e\u0938"], [" \u0915\u094d\u092f\u094b\u0902", "\u0915\u093f"], [" \u092a", "\u0921\u093c"], [" \u092e", "\u093e\u0930"], [" \u0938\u0902\u0918", "\u0930\u094d\u0937"], [" \u0938\u0941\u0930\u0915\u094d\u0937", "\u093e "], ["5", "5"], ["\u0905\u0902\u0924\u0930\u094d", "\u0917\u0924 "], ["\u0905\u0928\u0941", "\u092e\u093e\u0928 "], ["\u0905\u0935", "\u0938\u0930 "], ["\u0907\u0932\u093e", "\u0915\u0947 "], ["\u0909\u0926\u094d\u0926\u0947\u0936", "\u094d\u092f"], ["\u0913\u0902 ", "\u092a\u0930 "], ["\u0917\u0941\u0923", "\u0935\u0924\u094d"], ["\u091c\u093f\u092e\u094d\u092e\u0947", "\u0926\u093e\u0930\u0940 "], ["\u0927", "\u094d"], ["\u092a\u0940", "\u095c"], ["\u092a\u0941", "\u0930 \u0938\u0947 "], ["\u092a\u094d\u0930\u0927\u093e\u0928", "\u092e\u0902\u0924\u094d\u0930\u0940 "], ["\u092c\u0932\u094d", "\u0915\u093f "], ["\u092c\u0940", "\u0924\u0947 "], ["\u092c\u0941", "\u0932"], ["\u092d\u093e\u0930\u0924", " \u0915\u0940 "], ["\u092e\u093e\u0928", "\u0935"], ["\u092e\u0947", "\u0924"], ["\u092e\u094c", "\u0938\u092e "], ["\u0935", "\u0927\u093e\u0928"], ["\u0935\u0940", "\u0902"], ["\u0936\u093e", "\u0938\u094d\u0924\u094d\u0930"], ["\u0938", " \u0915\u093e "], ["\u0938\u0941\u0930\u0915\u094d\u0937", "\u093f\u0924 "], ["\u093f", "\u0930"], ["\u0940", "\u0923 "], ["\u0947\u0902", "\u091f "], ["\u094d\u0939", "\u094b\u0902"], [" \u0915", "\u0926\u092e "], [" \u0915\u094b\u0930\u094b\u0928\u093e ", "\u0938\u0902\u0915\u094d\u0930\u092e\u0923"], [" \u092e", "\u0940\u0923"], [" \u0938", "\u093e\u0902"], ["3", "6"], ["5", "5"], ["\u0905", "\u0928\u0947"], ["\u0906", "\u0915\u0930\u094d"], ["\u0909\u0928\u094d\u0939", "\u0947\u0902"], ["\u090f", "\u0932 "], ["\u0915", "\u093e\u0932 "], ["\u091a", "\u093e "], ["\u091c\u093e\u0902\u091a", " \u0915\u0947 \u0932\u093f\u090f "], ["\u091f\u093e\u0907", "\u091c"], ["\u0921", "\u0941"], ["\u0924\u0902", "\u0924\u094d\u0930 "], ["\u0924\u0939\u0938\u0940\u0932", "\u0926\u093e\u0930 "], ["\u0928", "\u094b\u0902 \u0915\u0947 "], ["\u092a", "\u0924\u094d\u0930 "], ["\u092a\u094d\u0930\u093e", "\u092a\u094d\u0924 "], ["\u092b\u093f\u0930 ", "\u092d\u0940 "], ["\u092c", "\u092f\u093e\u0928"], ["\u092d\u093e\u0935", "\u0928\u093e"], ["\u092e\u0947", "\u0930\u0940 "], ["\u092f\u0939 ", "\u092d\u0940 "], ["\u0935 \u092e", "\u0930\u0940\u091c"], ["\u0939", "\u092e\u093e\u0930"], [" ", "\u092d\u0940 "], [" \u0905", "\u0924\u093f\u0925\u093f"], [" \u092a\u094d\u0930", "\u0923\u093e\u0932"], [" \u092a\u094d\u0930\u094b", "\u0924\u094d\u0938\u093e\u0939"], [" \u0939\u094b", "\u0915\u0930 "], ["-", " \u0914\u0930 "], ["\u0905\u092d\u093f\u092f", "\u093e\u0928 "], ["\u090f\u0938", "\u094b"], ["\u0917", "\u093c"], ["\u0918", "\u0930 \u092a\u0930 "], ["\u091c\u093e", "\u0930 \u0938\u0947 "], ["\u0921\u093e", "\u0909\u0928"], ["\u0921\u0940", "\u090f\u092e"], ["\u0924\u0947 \u0939\u0948\u0902", " \u0915\u093f"], ["\u0924\u094d\u092e", "\u0915"], ["\u0928\u0947 \u0915", "\u0940"], ["\u092a\u0930\u0947\u0936", "\u093e\u0928\u0940 "], ["\u092a\u094d\u0930\u093e", "\u0925\u092e\u093f\u0915"], ["\u092b", "\u093e "], ["\u092e\u093e\u0924\u094d\u0930", "\u093e \u092e\u0947\u0902 "], ["\u092e\u094b\u0939", "\u0932\u094d"], ["\u0935\u093f", "\u091a\u093e\u0930 "], ["\u0938\u0940", "\u092c\u0940"], ["\u0939\u0940", "\u0964"], ["\u0939\u0948, ", "\u091c\u094b "], [" \u0915\u093f ", "\u0935\u0947 "], [" \u0915\u093f\u090f ", "\u091c\u093e\u0928\u0947"], [" \u0915\u093f\u092f\u093e ", "\u091c\u093e\u0924\u093e \u0939\u0948\u0964"], [" \u092c\u0948", "\u0920"], [" \u092e\u0948", "\u0902 "], [" \u0938\u094d", "\u0935\u093e"], [" \u0939\u094b ", "\u0917\u0908 \u0939\u0948\u0964"], [".", " "], ["\u0902\u0921", "\u0930 "], ["\u0905\u092d\u0940 ", "\u092d\u0940 "], ["\u0906 ", "\u0930\u0939\u0940 "], ["\u090f\u0938", "\u092a\u0940"], ["\u0915", "\u0902\u092a"], ["\u0915", "\u094b\u0902 \u0938\u0947 "], ["\u0915", "\u095c"], ["\u0917", "\u093e\u0930"], ["\u0918\u0930\u0947\u0932", "\u0942 "], ["\u091a\u0940", "\u0928"], ["\u091c\u0948", "\u0938\u093e"], ["\u0921", "\u092c\u094d\u0932"], ["\u0924\u0940", "\u0938"], ["\u0927\u093e\u0930", "\u0923"], ["\u0927\u0940", "\u0915\u094d\u0937"], ["\u0928\u093f", "\u0930\u093e"], ["\u092a\u094d\u0930", "\u0926\u0947\u0936 \u092e\u0947\u0902 "], ["\u092b\u0930", "\u0935\u0930\u0940 "], ["\u092c\u0924\u093e \u0926\u0947\u0902", " \u0915\u093f "], ["\u092c\u093e\u0930", "\u093e "], ["\u092c\u094b", "\u0930\u094d\u0921"], ["\u092e", "\u0930\u0940\u091c "], ["\u092f\u0939 ", "\u090f\u0915 "], ["\u0930\u0916", "\u0928\u093e "], ["\u0930\u091c\u093f", "\u0938\u094d\u091f\u094d\u0930"], ["\u0932\u093e\u0916", "\u094b\u0902 "], ["\u0935", "\u0941"], ["\u0935\u093e\u0930 ", "\u0938\u0941\u092c\u0939 "], ["\u0935\u093f\u0926\u0947\u0936", "\u0940 "], ["\u0936", "\u0939\u0940"], ["\u0936", "\u093e\u092f"], ["\u0936\u093f\u0915\u094d\u0937", "\u093e"], ["\u0936\u094d\u0935", "\u0930 "], ["\u0938\u0902\u092a\u0930\u094d", "\u0915 \u092e\u0947\u0902 "], ["\u0938\u093f", "\u0926\u094d\u0927"], ["\u0938\u0941\u0930\u0915\u094d\u0937", "\u093e"], ["\u0938\u0947", "\u0935\u093e "], ["\u093f", "\u0936 "], ["\u0947\u0902", ", "], ["\u0947\u0936", " \u0915\u0941\u092e\u093e\u0930 "], ["\u094d", "\u0930 \u092e\u0947\u0902 "], ["\u094d\u0937", "\u092e"], [" \u0915\u093e", "\u0930 "], [" \u0938", "\u0915\u0947"], [" \u0938\u0902\u0916\u094d\u092f", "\u093e "], [", \u0938", "\u094b"], ["7", "5"], ["o", "r"], ["\u0905", "\u0924\u094d\u092f"], ["\u0905\u092a\u0940", "\u0932"], ["\u0907", "\u0924\u093f\u0939\u093e"], ["\u0907\u0932\u093e", "\u091c "], ["\u0909\u092a\u092d\u094b", "\u0915\u094d"], ["\u090f\u0938\u094b", "\u0938\u093f"], ["\u0916", "\u092c\u0930 "], ["\u091a\u093e\u0930\u094d", "\u091c"], ["\u091d", "\u0942"], ["\u091f\u0940", "\u0915\u093e"], ["\u0921\u093f", "\u0902\u0917"], ["\u0924", "\u0928"], ["\u0926\u093f\u090f ", "\u0939\u0948\u0902\u0964"], ["\u092c", "\u095c\u0947 "], ["\u092c\u093f", "\u0939\u093e\u0930"], ["\u092c\u0941", "\u091c\u0941\u0930\u094d"], ["\u092d", "\u094c"], ["\u092e", "\u0930 "], ["\u092e\u0942\u0932", "\u094d\u092f"], ["\u0930", "\u092e\u0947"], ["\u0935\u0930\u094d\u0924\u092e\u093e\u0928", " \u092e\u0947\u0902 "], ["\u0939\u093e", "\u0901"], ["\u0939\u0948 ", "\u0932\u0947\u0915\u093f\u0928 "], ["\u093f\u0924 ", "\u0939\u094b"], ["\u0940 \u0915", "\u0902\u092a"], [" \u092a\u0939\u0941\u0902\u091a", " "], [" \u092e", "\u0943"], ["1", "7 "], ["\u0905\u0902\u0924\u093f", "\u092e"], ["\u0906", "\u092f\u093e"], ["\u0906\u092c\u093e", "\u0926\u0940 "], ["\u0908", ", "], ["\u0909", "\u0926\u092f"], ["\u090f\u0938\u0921\u0940", "\u090f\u092e "], ["\u0915", "\u0924"], ["\u0917\u0941", "\u0930\u094d"], ["\u0917\u094d\u0930\u093e\u092e", "\u0940\u0923 "], ["\u0918", "\u0902\u091f\u0947"], ["\u091a", "\u0932\u0940 "], ["\u091a\u0940", "\u0928\u0940 "], ["\u091c", "\u0930\u094d"], ["\u0923", "\u093e\u0932\u0940 "], ["\u0924\u0932\u093e", "\u0936"], ["\u0924\u0947", "\u0932"], ["\u0928 ", "\u0939\u0940 "], ["\u092a\u094d\u0930\u093e", "\u092a\u094d\u0924"], ["\u092b", "\u0938\u0932 "], ["\u092c", "\u091c\u0947 "], ["\u092c\u0932\u094d", "\u0915\u093f"], ["\u092c\u093f", "\u0917"], ["\u092c\u095d", " "], ["\u092f\u0942\u0928\u093f", "\u0935\u0930\u094d"], ["\u0930\u0939", "\u0928\u093e "], ["\u0930\u093f", "\u0936\u094d"], ["\u0932\u0947", "\u091c "], ["\u0935\u093f", "\u0935\u0947"], ["\u0938\u092e\u093e", "\u0927\u093e\u0928"], ["\u0938\u0947 ", "\u092e\u0947\u0902 "], ["\u0938\u094d\u0925\u093e\u0928", "\u0940\u092f"], ["\u0938\u094d\u092a", "\u0947"], ["\u0939", "\u0930\u093f"], ["\u0947\u0902 ", "\u0928\u0947 "], [" \u0915", "\u0932\u0947\u0915\u094d\u091f\u0930 "], [" \u0915\u0930 \u0932\u093f\u092f\u093e ", "\u0939\u0948\u0964"], [" \u092a\u094d\u0930", "\u0924\u094d\u092f\u093e"], [" \u092e\u093e\u0930\u094d", "\u091a "], ["4", "."], ["\u0902\u0917", "\u0940\u0964"], ["\u0902\u0921", "\u0940"], ["\u0906", "\u0920"], ["\u0909", "\u091f"], ["\u0915", "\u093f\u0932 "], ["\u091a\u0941", "\u0915\u093e "], ["\u091c\u093e \u0938\u0915", "\u0924\u093e \u0939\u0948\u0964"], ["\u091c\u093e\u0902\u091a", " \u092e\u0947\u0902 "], ["\u0921\u092c\u094d\u0932", "\u094d\u092f\u0942"], ["\u0926\u093e", "\u0947 "], ["\u0928\u093e\u092e", " \u092a\u0930 "], ["\u092a\u0930\u0940\u0915\u094d\u0937", "\u093e"], ["\u092a\u093e\u0932", "\u0928 "], ["\u092a\u094d\u0930", "\u0915\u094d\u0930\u093f\u092f\u093e "], ["\u092b", "\u0947\u0902"], ["\u092c", "\u095c"], ["\u092c\u0940", "\u0921\u0940"], ["\u092e\u0948", "\u091a"], ["\u0930\u0947", "\u091f"], ["\u0938\u0915", "\u0930\u094d\u092e"], ["\u0938\u093e", "\u092b"], ["\u0938\u093e\u092e\u093e\u091c", "\u093f\u0915 "], ["\u0938\u094d\u0924\u0941", "\u0924"], ["\u0939", "\u0932"], ["\u093e\u0928\u0947 ", "\u0935\u093e\u0932\u0947 "], ["\u093f\u092f", "\u0930 "], ["\u0940\u092f", "\u0942"], [" \u092e\u094c\u091c\u0942\u0926 ", "\u0925\u0947\u0964"], [" \u0939\u0941\u0908 ", "\u0939\u0948\u0964"], ["\u0905\u092e\u0947\u0930\u093f\u0915", "\u0940 "], ["\u0909", "\u0926\u094d\u092f"], ["\u090f", "\u0902\u0917\u0947\u0964"], ["\u0916", "\u093e\u0928\u093e "], ["\u0916", "\u093e\u0938"], ["\u091a\u093f\u0915\u093f\u0924\u094d", "\u0938"], ["\u091c", " \u092e\u0947\u0902 "], ["\u091c\u093e", "\u0924"], ["\u0920", "\u0940 "], ["\u0921\u093c", "\u0915 "], ["\u0924\u093e ", "\u0939\u0942"], ["\u0926\u0940", " \u0915\u0940 "], ["\u0926\u0947\u0936", " \u0915\u0940 "], ["\u0928\u093f", "\u0917\u0947"], ["\u0928\u0947", "\u0935\u093e\u0932\u0947 "], ["\u092a\u0939\u0932\u0940 ", "\u092c\u093e\u0930 "], ["\u092a\u0939\u0932\u0947 ", "\u0939\u0940 "], ["\u092a\u094d\u0930", "\u0923\u093e\u0932"], ["\u092a\u094d\u0930", "\u092d\u093e\u0935\u093f\u0924 "], ["\u092c\u0947", "\u091f\u0940 "], ["\u092d\u093e\u0917", "\u094d\u092f"], ["\u092e\u093e", "\u0947"], ["\u0932", "\u093f\u092f\u093e"], ["\u0932\u093f", "\u0916\u093e "], ["\u0932\u0940 ", "\u092e\u0947\u0902 "], ["\u0935\u093f\u092d\u093f\u0928\u094d", "\u0928"], ["\u0936\u093e\u092e\u093f\u0932 ", "\u0939\u0948\u0964"], ["\u0938\u0915", "\u094d\u0930"], ["\u0939\u0940 ", "\u0928\u0939\u0940\u0902 "], ["\u0939\u0941\u0906 ", "\u0925\u093e\u0964"], ["\u0940 \u0915", "\u0940"], [" \u0915\u0930 ", "\u0932\u093f\u092f\u093e\u0964"], [" \u0915\u093f", "\u0938 "], [" \u0915\u0940 ", "\u0905\u0927\u094d\u092f\u0915\u094d\u0937"], [" \u092a", "\u093e "], [" \u0938\u0902", "\u0915\u091f"], [" \u0938\u0902", "\u0938\u094d"], [" \u0938\u093e", "\u0939\u0942"], [" \u0938\u093f", "\u0930\u094d\u092b "], ["2", "2 "], ["\u0906", "\u0915\u0930 "], ["\u0906", "\u0924\u094d"], ["\u0906\u090f ", "\u0939\u0948\u0902\u0964"], ["\u0907", "\u092f"], ["\u0909", "\u091a\u093f\u0924 "], ["\u0909\u0924\u094d", "\u0924\u0930"], ["\u0917\u092f\u093e ", "\u0939\u0948 \u0915\u093f "], ["\u091a\u0932 ", "\u0930\u0939\u093e \u0939\u0948\u0964"], ["\u091a\u093f\u0915\u093f\u0924\u094d", "\u0938\u0915"], ["\u091c", " \u0915\u0947 "], ["\u091c\u093e\u0928\u0915\u093e\u0930\u0940 \u0915\u0947 ", "\u0905\u0928\u0941\u0938\u093e\u0930 "], ["\u091c\u093f\u0928", "\u0915\u0947 "], ["\u0926", "\u0948"], ["\u0927", "\u0930, "], ["\u092a", " \u092e\u0947\u0902 "], ["\u092a\u0941", "\u0924\u094d\u0930 "], ["\u092a\u0941\u0932\u093f", "\u0938 \u0915\u0947 "], ["\u092b\u093f\u0932", "\u0939\u093e\u0932"], ["\u092b\u093f\u0932\u094d", "\u092e"], ["\u092c", "\u0947 "], ["\u092e\u093f\u0932", "\u093e "], ["\u0932\u093e", ", "], ["\u0935", "\u0915\u094d\u0924\u093e "], ["\u0938\u0926", "\u0930 "], ["\u0938\u093e", "\u0924 "], ["\u0939", "\u092e\u0947\u0936\u093e "], ["\u093f", "\u0924\u093e "], ["\u0940 \u0915", "\u0948"], ["\u0941\u0930", "\u0942"], [" \u0915\u0947 ", "\u0938\u0926\u0938\u094d\u092f"], [" \u0915\u0947 \u0938\u093e\u0925", "-"], [" \u0939\u093e", "\u0947 "], ["20", "15"], ["\u0902\u0917", "\u093e "], ["\u091a\u094c\u0927", "\u0930\u0940 "], ["\u091c\u093f", "\u0902\u0926"], ["\u091c\u0940\u0935\u093e", "\u0936\u094d"], ["\u091f\u0947", "\u0921"], ["\u0924 ", "\u0928\u0947 "], ["\u0927", "\u0930\u094d"], ["\u0928\u093f", "\u0936"], ["\u0928\u0947", "\u0924\u093e\u0913\u0902"], ["\u092a", "\u093e\u0930\u094d"], ["\u092c\u093e", "\u0902\u091f"], ["\u092d\u0940", "\u0924\u0930 "], ["\u092e ", "\u0908\u0902\u0927"], ["\u092e\u0902", "\u091c\u0942"], ["\u092e\u0926\u0926", " \u092e\u093f\u0932"], ["\u0930", "\u0949"], ["\u0930\u093f\u092a\u094b\u0930\u094d\u091f", " \u092e\u0947\u0902 "], ["\u0932\u094b\u0917", "\u094b\u0902 "], ["\u0935\u093f\u092a", "\u0930\u0940"], ["\u0939\u0941", "\u090f"], ["\u093e\u0930\u094d\u0935\u091c\u0928", "\u093f\u0915 "], [" \u0905", "\u092d\u0940 "], [" \u0915\u093f\u0932\u094b\u092e\u0940", "\u091f\u0930 "], [" \u092a\u094d\u0930\u093e", "\u0925\u092e\u093f\u0915"], [" \u0938\u0941", "\u0928"], [" \u0938\u094d\u0925", "\u093f\u0924"], [" \u0939", "\u092e\u093e\u0930\u0947 "], [")", " \u0915\u0940 "], ["\u0906\u0927\u093e\u0930", "\u093f\u0924 "], ["\u0909", "\u0924"], ["\u0911", "\u0938\u094d\u091f\u094d\u0930\u0947"], ["\u0915", " \u0915\u094b "], ["\u091a\u093e\u0939\u093f\u090f", ", "], ["\u0924\u094b", "\u0937"], ["\u0925\u093e\u0928\u093e ", "\u092a\u094d\u0930\u092d\u093e\u0930\u0940 "], ["\u0926\u0930\u094d", "\u091c\u0928"], ["\u0926\u0930\u094d", "\u0936\u0928 "], ["\u0926\u093e", "\u0948"], ["\u0926\u0947\u0916", " "], ["\u092c\u093e", "\u092c"], ["\u092d", "\u0930\u094b"], ["\u092d\u0917", "\u0935\u093e\u0928 "], ["\u092d\u094b", "\u091c\u0928"], ["\u092e\u0941", "\u0926\u094d\u0930"], ["\u0932\u0947\u0915\u093f\u0928", ", "], ["\u0935", "\u0938\u094d\u0924\u0941"], ["\u0935\u093f", "\u0928\u094b"], ["\u0935\u0948\u091c\u094d\u091e\u093e\u0928", "\u093f\u0915"], ["\u0936", "\u0935 "], ["\u0936", "\u094c"], ["\u0938\u093f", "\u0935\u093f\u0932"], ["\u0938\u094d\u0915", "\u0942\u0932 "], ["\u0939\u093f", "\u0938\u093e\u092c"], ["\u093e\u092f", "\u0940 "], ["\u093f\u092f", "\u094b\u0902 \u0915\u0947 \u0932\u093f\u090f "], ["\u095c", "\u0915\u0930 "], [" \u0915\u0902\u092a", "\u0928\u0940"], [" \u0915\u093e\u0930\u094d\u092f\u093e\u0932\u092f", " \u092e\u0947\u0902 "], [" \u0915\u093f\u092f\u093e ", "\u091c\u093e \u0930\u0939\u093e "], [" \u092a", "\u0947\u0936"], [" \u0938\u092e\u091d", "\u094c"], ["3", "3"], ["\u0905\u0927\u093f\u0915", "\u0924\u0930 "], ["\u0907\u0902\u0921", "\u093f\u092f\u093e "], ["\u0909", "\u0932"], ["\u090f", "\u0902\u0921"], ["\u090f\u0935", "\u0902"], ["\u0915\u093e ", "\u092e\u0947\u0902 "], ["\u0915\u0943", "\u0924"], ["\u0915\u0943", "\u0924 "], ["\u0916", "\u093e\u0930"], ["\u0917\u0941", "\u092a\u094d"], ["\u091a\u0940", "\u0928 \u0915\u0940 "], ["\u091c\u0941", "\u091f"], ["\u091c\u094d\u091e\u093e\u092a", "\u0928 "], ["\u091f", " \u0915\u0947 "], ["\u0921\u0949", "\u0932"], ["\u0924\u0940 ", "\u0939\u0948 "], ["\u0924\u0940\u0938\u0930", "\u0947 "], ["\u0926\u093e", "\u0947"], ["\u0926\u093f\u0932\u094d\u0932\u0940 ", "\u092e\u0947\u0902 "], ["\u0926\u0941\u0928\u093f\u092f\u093e ", "\u092e\u0947\u0902 "], ["\u0928", "\u0932 "], ["\u0928\u0917\u0930 ", "\u0928\u093f\u0917\u092e"], ["\u092a", "\u095c "], ["\u092c\u0924\u093e\u092f\u093e", " \u0915\u093f"], ["\u092f\u0941", "\u0915\u094d\u0924"], ["\u0930\u0915\u094d\u0937", "\u093e "], ["\u0932\u094c", "\u091f "], ["\u0936", "\u093e \u092e\u0947\u0902 "], ["\u0939\u092e", "\u0928\u0947 "], ["\u0949", "\u0930\u094d\u0921"], ["\u094d\u0937", "\u0926 "], [" \u0915\u0930\u0928\u0947", ", "], [" \u0915\u093e ", "\u090f\u0915 "], [" \u0915\u093f\u092f\u093e ", "\u091c\u093e\u0924\u093e "], [" \u0915\u0947 \u092a\u094d\u0930", "\u0924\u093f"], [" \u092a", "\u094c"], [" \u0938\u091a\u093f", "\u0935 "], [" \u0939\u094b", "\u0924\u093e \u0939\u0948\u0964"], ["19", " "], ["a", "r"], ["\u0902", "\u092a\u0930"], ["\u0905", "\u091a\u093e\u0928"], ["\u0905\u0924\u093f\u0915\u094d\u0930", "\u092e\u0923"], ["\u0905\u0924\u093f\u0930\u093f\u0915\u094d", "\u0924 "], ["\u0905\u0927\u093f\u0915", "\u0924\u092e "], ["\u0907\u0928", "\u0915\u0940 "], ["\u0915\u094d\u0937", " "], ["\u0917\u094d\u0930", "\u0940"], ["\u0917\u094d\u0930\u0939", "\u0923"], ["\u091c\u0928\u094d", "\u092e"], ["\u091f", "\u094d\u091f\u0940 "], ["\u0924\u0940", "\u0936"], ["\u0926\u093f", "\u0928\u0947"], ["\u0928\u0940", "\u0932"], ["\u092a\u093e\u0930", "\u094d\u091f\u0940 "], ["\u092c\u0926\u092e\u093e", "\u0936"], ["\u092e\u0902\u0921", "\u0932 "], ["\u0930\u093e", "\u0924 \u092e\u0947\u0902 "], ["\u0930\u093e", "\u0924\u094d\u0930\u093f"], ["\u0930\u093e\u091c", "\u0940"], ["\u0930\u093e\u0938\u094d", "\u0924\u093e "], ["\u0932\u0947\u0915\u094d", "\u091f\u094d\u0930"], ["\u0938", "\u0916\u094d"], ["\u0938", "\u092a\u094d"], ["\u0938\u0940 ", "\u092e\u0947\u0902 "], ["\u0938\u094d\u0924", "\u0930 \u092a\u0930 "], ["\u0938\u094d\u0935", "\u091a\u094d\u091b"], ["\u0939\u0941\u0908 ", "\u0925\u0940\u0964"], ["\u0939\u094b\u0917", "\u0940 "], ["\u0940 ", "\u0928\u0947 "], ["\u0947\u0902", " \u0915\u0947 "], [" \u0915", "\u093c"], [" \u0915\u0930 ", "\u0932\u0947"], [" \u0915\u093e\u0902\u0917\u094d\u0930\u0947", "\u0938 \u0915\u0947 "], [" \u0915\u0947\u0902\u0926\u094d\u0930", "\u0940\u092f"], [" \u0915\u094d\u0937", "\u0924\u093f"], ["1", "1 "], ["\u0905", "\u0928\u093e"], ["\u0905\u0928\u0941", "\u0938\u0902"], ["\u0915", "\u093c"], ["\u0915 ", "\u0928\u0947 "], ["\u0915\u0930", ", "], ["\u0915\u094d\u092f", "\u094b\u0902"], ["\u091a\u093e", "\u0902\u0926"], ["\u091f", " \u0938\u0947 "], ["\u091f", "\u0928 "], ["\u091f\u0947", "\u0915\u094d"], ["\u091f\u094d\u0930", "\u0902\u092a"], ["\u0924\u0941\u0930", "\u0902\u0924 "], ["\u0924\u0948\u092f", "\u093e\u0930\u0940 "], ["\u0926\u093f\u092f\u093e ", "\u091c\u093e\u090f\u0917\u093e\u0964"], ["\u0928", "\u0937\u094d\u091f"], ["\u0928\u0935", "\u0902\u092c\u0930 "], ["\u0928\u0939\u0940\u0902", ", "], ["\u0928\u093f\u0930\u094d\u0923", "\u092f"], ["\u092a\u093e", "\u0915\u093f\u0938\u094d\u0924\u093e\u0928"], ["\u092a\u094d\u0930", "\u092e\u0941\u0916 "], ["\u092b", "\u0902"], ["\u092b\u094b", "\u091f\u094b"], ["\u092c", "\u0921\u093c"], ["\u092c\u093f\u091c", "\u0932\u0940"], ["\u092e", "\u0936"], ["\u092e\u093e\u0930\u094d\u091f", "\u092e"], ["\u092f\u0939\u093e\u0902 ", "\u092a\u0930 "], ["\u0930\u0915\u094d\u0937", "\u0923"], ["\u0930\u093e\u091c", "\u092a\u0942"], ["\u0932\u093e", "\u0915\u0930 "], ["\u0932\u093f", "\u0924 "], ["\u0932\u0949", "\u0928\u094d"], ["\u0935\u094d\u092f\u093e\u092a", "\u0915 "], ["\u0938", "\u093f\u0915 "], ["\u0938\u093e", "\u0927\u0928 "], ["\u0938\u0940", " \u0915\u0947 "], ["\u0938\u0942\u091a\u0928\u093e ", "\u092e\u093f\u0932"], ["\u0938\u094d\u0924", "\u0930 "], ["\u0939", "\u091c\u093e\u0930"], ["\u0939", "\u0925\u093f\u092f"], ["\u0939\u093e\u0932\u093e", "\u0901"], ["\u093e", "\u0908 "], ["\u093e\u0928\u0947 ", "\u092a\u0930 "], ["\u094d\u092f", "\u0941"], [" \u0915\u092e", "\u0940 "], [" \u0915\u0930 ", "\u092a\u093e"], [" \u0915\u093e", " \u0915\u093e\u0930\u094d\u092f"], [" \u0915\u093f\u0928\u093e\u0930", "\u0947 "], [" \u0915\u0940 ", "\u0936\u0941\u0930\u0941\u0906"], [" \u0915\u0943", "\u0937\u094d\u0923"], [" \u0915\u094d", "\u0935\u093f"], [" \u0938\u093f", "\u0938\u094d\u091f"], [",", " \u0915\u094b"], ["s", " "], ["\u0906", "\u0917\u0947"], ["\u0915\u094d\u0930", "\u094b"], ["\u0917\u093e", "\u095c"], ["\u091a\u0947", "\u0915"], ["\u091b", "\u0924\u094d"], ["\u091c\u093f\u0928", "\u0915\u0940 "], ["\u091c\u0942", "\u0926\u093e "], ["\u091f ", "\u0914\u0930 "], ["\u091f\u0940", "\u0935\u0940 "], ["\u091f\u094d\u0935\u0940", "\u091f"], ["\u0926", "\u0938 "], ["\u0926\u093f", "\u0936\u093e "], ["\u0928\u0939\u0940\u0902", " \u0915\u0930"], ["\u0928\u0940 ", "\u092e\u0947\u0902 "], ["\u092a\u0902", "\u091c\u093e\u092c"], ["\u092a\u094d\u0930", "\u092e\u0941\u0916"], ["\u092a\u094d\u0930\u0924\u093f", "\u0928\u093f\u0927\u093f"], ["\u092c\u0948\u0920", "\u0947 "], ["\u092d", "\u0935\u0928"], ["\u092d\u0902\u0921", "\u093e\u0930"], ["\u092d\u093e", "\u0930 "], ["\u092e\u0902\u0926\u093f", "\u0930 \u092e\u0947\u0902 "], ["\u092e\u093e", "\u0907"], ["\u092e\u094c", "\u091c\u0942\u0926"], ["\u092f\u094b\u091c", "\u0928 "], ["\u0930", "\u0926\u094d\u0926"], ["\u0930\u0939", "\u0924\u0947 \u0939\u0948\u0902\u0964"], ["\u0932\u093e", "\u0936"], ["\u0935\u093e", "\u0926\u0940 "], ["\u0935\u093e\u0930\u094d\u0921", " \u092e\u0947\u0902 "], ["\u0935\u093f", "\u0930\u093e"], ["\u0935\u093f\u0927\u093e\u0928\u0938", "\u092d\u093e"], ["\u0936\u0940", "\u0918"], ["\u0938", "\u092d\u093e "], ["\u0938\u0902\u092d\u093e\u0935\u0928\u093e ", "\u0939\u0948\u0964"], ["\u0938\u092e\u092f", " \u0938\u0947 "], ["\u0938\u094d\u091f", "\u0947"], ["\u094d\u0939\u094b\u0902", "\u0928\u0947 "], [" \u0905", "\u0927\u094d\u092f\u0915\u094d\u0937 "], [" \u0915", "\u092c\u094d"], [" \u0915\u0947 ", "\u0928\u093f\u0930\u094d\u0926\u0947\u0936"], [" \u092a", "\u091f\u0947"], [" \u092a", "\u093e\u0932"], [" \u092a", "\u0941\u0930\u0941"], [" \u092a\u0930 ", "\u092d\u0940 "], [" \u092c", "\u095d"], [" \u0938\u094d\u0915", "\u0942\u0932 "], [" \u0938\u094d\u0935", "\u0938\u094d\u0925"], [" \u0939\u0941", "\u090f\u0964"], [")", " \u0928\u0947 "], [",00", "0"], [",00", "0 "], ["1", "8 "], ["19", "9"], ["3", "3"], ["3", "7"], ["5", "00"], ["6", "."], ["\u0902", "\u0924\u0941 "], ["\u0902\u0921", "\u093e "], ["\u0905\u092a", "\u0928\u093e"], ["\u0907\u0938", " \u0938"], ["\u0908", " \u0915\u0947 "], ["\u0917\u093e\u0902\u0935", "\u094b\u0902 \u092e\u0947\u0902 "], ["\u091c\u0948", "\u0938\u0947"], ["\u091c\u094d\u091e", "\u093e\u0928 "], ["\u091d\u093e\u0930", "\u0916\u0902\u0921"], ["\u091f\u094d\u0930\u0947", "\u0928"], ["\u091f\u094d\u0930\u0947", "\u0928 "], ["\u0924\u0940", " \u0915\u0940 "], ["\u0928", "\u091c\u093c"], ["\u0928\u093f\u0936\u094d\u091a", "\u093f\u0924 "], ["\u092a\u094d\u0930", "\u0926\u0947\u0936 \u0915\u0947 "], ["\u092b\u093f\u0932", "\u0939\u093e\u0932 "], ["\u092e", "\u0915"], ["\u092e\u093f", "\u0936\u094d"], ["\u0930", "\u0947 \u092e\u0947\u0902 "], ["\u0930\u0923", "\u0928\u0940\u0924\u093f"], ["\u0935\u091c", "\u0939 "], ["\u0936\u094b", "\u0915"], ["\u0938", "\u0935\u093e\u0932 "], ["\u0938\u0902\u0918", "\u0930\u094d\u0937"], ["\u0939\u093e", "\u0925 "], ["\u093e\u0928 ", "\u0928\u0947 "], ["\u093f\u092f\u094b\u0902 ", "\u0926\u094d\u0935\u093e\u0930\u093e "], ["\u094d\u092f\u093e", "\u0902\u0915"], ["\u095c", "\u0915 "], [" \u0915", "\u091a"], [" \u0915\u093f", "\u0930"], [" \u0915\u0947 \u0905", "\u0902\u0926\u0930 "], [" \u0915\u0947 \u0906", "\u0926\u0947\u0936"], [" \u0915\u0948", "\u0902\u092a"], [" \u092a\u0939", "\u0932\u0940 "], [" \u092a\u094d\u0930", "\u0917\u0924\u093f"], [" \u092e\u0939", "\u0924\u094d\u0935\u092a\u0942\u0930\u094d"], [" \u0938\u0941", "\u0927\u093e\u0930"], [" \u0938\u0948", "\u0902\u092a"], [" \u0939", "\u0940"], ["3", "4"], ["8", "."], ["\u0902 ", "\u0914\u0930 "], ["\u0906\u0930", "\u0902\u092d"], ["\u0917\u0948", "\u0930-"], ["\u0917\u094b", "\u0932"], ["\u091d", "\u093e\u0902"], ["\u0924\u093f", " \u0915\u0947 "], ["\u0926\u0942", "\u0937\u0923"], ["\u0926\u0943\u0937\u094d\u091f\u093f", " \u0938\u0947 "], ["\u0928\u093e", " \u0915\u0940 "], ["\u0928\u0947", ", "], ["\u0928\u094d\u092f\u0942\u0928", "\u0924\u092e "], ["\u092a\u094d\u0930", "\u0938\u094d\u0924\u093e"], ["\u092b\u093f\u0932\u094d", "\u092e "], ["\u092c", "\u093e\u0930\u0940 "], ["\u092c\u093e", "\u0917"], ["\u092e\u094c", "\u0938\u092e"], ["\u092f\u094b\u0917", "\u0926\u093e\u0928"], ["\u0930\u0941\u092a\u090f", " \u0915\u093e "], ["\u0930\u0942\u092a", " "], ["\u0932\u0940", "\u091f\u0930 "], ["\u0935", "\u093e\u0928\u093e "], ["\u0935\u0947", "\u092c"], ["\u0936\u093e\u092e", " \u0915\u094b "], ["\u0938", "\u0928"], ["\u0938\u0902\u092c\u0902\u0927", " \u092e\u0947\u0902 "], ["\u0938\u094b\u0936\u0932 \u0921\u093f\u0938\u094d\u091f\u0947\u0902", "\u0938\u093f\u0902\u0917"], ["\u0938\u094d\u0935\u093e", "\u0917\u0924"], ["\u093e\u0928\u0947 \u0915\u0940 ", "\u092e\u093e\u0902\u0917"], [" \u0915\u0908 ", "\u092c\u093e\u0930 "], [" \u0915\u0941\u092e\u093e\u0930 ", "\u0928\u0947 "], [" \u0915\u0947", " \u0915\u093e\u0930\u094d\u092f"], [" \u092a\u094b", "\u0938\u094d\u091f"], [" \u092e", "\u093e\u0932"], [" \u092e\u093e\u0930\u094d", "\u0917"], [" \u0938", "\u092e\u0947\u0924 "], [" \u0938\u093e\u0932", " \u092a\u0939\u0932\u0947 "], [" \u0939\u094b", "\u0928\u0947 \u092a\u0930 "], [")", ", "], ["1", "6 "], ["6", "0 "], ["6", "5"], ["\u0906\u092f", "\u093e\u0964"], ["\u0911\u0928", "\u0932\u093e\u0907\u0928"], ["\u0915", "\u094b\u0902 \u0915\u0940 "], ["\u0917\u0932", "\u0924 "], ["\u091a\u0947\u0924\u093e\u0935", "\u0928\u0940 "], ["\u091b\u0924\u094d", "\u0924\u0940\u0938"], ["\u091c\u092e\u0940", "\u0928 "], ["\u091c\u0932\u094d", "\u0926 "], ["\u091c\u093e\u090f\u0917", "\u093e "], ["\u091c\u0947", "\u0932 "], ["\u0920", "\u094b"], ["\u0924", "\u0947\u0902 "], ["\u0924", "\u0947\u0964"], ["\u0926\u093f\u092f\u093e ", "\u0917\u092f\u093e "], ["\u0926\u0940 ", "\u0917\u0908 "], ["\u0928\u0947", " \u0915\u094b"], ["\u0928\u094b\u091f\u093f", "\u0938 "], ["\u092a", "\u094d\u091f"], ["\u092a\u094d\u0930", "\u0915\u093e\u0936 "], ["\u092d\u093e\u0938\u094d", "\u0915\u0930 "], ["\u092e\u0948", "\u0926\u093e\u0928"], ["\u0930\u0940 ", "\u0938\u0947 "], ["\u0932\u0902", "\u0918"], ["\u0936\u094d", "\u0935\u093e\u0938"], ["\u0939\u094b", "\u0928\u0947 \u0935\u093e\u0932\u0940 "], [" \u0915", "\u092a"], [" \u0915", "\u093f\u092f\u093e, "], [" \u0938", "\u092c\u094d"], [" \u0938\u0902", "\u092f\u0941\u0915\u094d\u0924 "], ["'", " "], ["a", "n"], ["\u0905", "\u0902\u0926\u0930 "], ["\u0905", "\u0915\u0947"], ["\u0905\u092a", "\u0928"], ["\u0906", "\u0908\u0964"], ["\u0907", "\u0902\u091a"], ["\u0907", "\u0928\u094d"], ["\u0907\u0932\u093e\u0915\u0947 ", "\u092e\u0947\u0902 "], ["\u090f\u0938\u0921\u0940", "\u090f\u092e"], ["\u0915\u093e", " \u0915\u0947 "], ["\u0916\u0941", "\u0932\u093e"], ["\u0917\u0941\u092a\u094d", "\u0924\u093e "], ["\u091a\u0932 ", "\u0930\u0939\u0940 "], ["\u091c", "\u092e\u093e "], ["\u091c\u093f\u0928", "\u0915\u093e "], ["\u0922", "\u0902\u0917"], ["\u0924\u0940 ", "\u0939\u0948, "], ["\u0925", "\u093e\u092e"], ["\u0926", "\u0938\u094d\u0924\u093e"], ["\u0926", "\u093e\u0930\u0940"], ["\u0926", "\u093e\u0938"], ["\u0926\u0930", "\u0935\u093e"], ["\u0926\u093e", "\u0935\u093e"], ["\u0926\u093f\u0928", "\u094b\u0902 \u0938\u0947 "], ["\u0928\u093f", "\u091c\u0940"], ["\u0928\u0947 ", "\u092a\u0930"], ["\u092a\u094d\u0930", "\u0924\u094d\u092f\u093e"], ["\u092a\u094d\u0930\u0924\u093f", "\u092c\u0902\u0927"], ["\u092b", "\u0942"], ["\u092b\u0930", "\u0935\u0930\u0940"], ["\u092e", "\u0930\u094d"], ["\u092e ", "\u0914\u0930 "], ["\u0930\u093e\u091c\u094d\u092f", " \u0938\u0930\u0915\u093e\u0930"], ["\u0930\u093e\u0937\u094d\u091f\u094d\u0930", "\u092a\u0924\u093f"], ["\u0930\u094d\u092b", "\u094d\u092f\u0942"], ["\u0932\u094b\u0917", "\u094b\u0902 \u092e\u0947\u0902 "], ["\u0935", "\u0924"], ["\u0935\u0930\u094d", "\u092e\u093e"], ["\u0935\u093e", "\u0938\u0940"], ["\u0935\u0947", "\u0924\u0928 "], ["\u0936\u093e", "\u0938\u0915"], ["\u0938 ", "\u0928\u0947 "], ["\u0938\u0902\u092a\u0930\u094d", "\u0915"], ["\u0938\u0930\u094d", "\u0935\u0947"], ["\u0938\u0940", "\u092e\u093e"], ["\u0939\u094b", "\u0928\u0947 \u092a\u0930 "], ["\u0939\u094b", "\u0928\u0947 \u0935\u093e\u0932\u0947 "], ["\u0942\u0921", "\u0947\u0902\u091f"], ["\u0947\u0917", "\u093e, "], [" \u0915\u0930\u0928\u0947", " \u0915\u0947 \u092c\u093e\u0926 "], [" \u0915\u093e ", "\u092d\u0940 "], [" \u092a\u0930\u093f", "\u091c\u0928"], [" \u092a\u094d\u0930", "\u092f\u093e\u0938"], [" \u0938\u094d\u091f", "\u0948\u0902\u0921"], ["201", "8"], ["\u0905", "\u092b\u093c\u094d\u0930\u0940"], ["\u0905\u0927\u093f\u0915", "\u093e\u0902"], ["\u0905\u0935\u0948", "\u0927"], ["\u0907", "\u091f"], ["\u0915\u093f", "\u0902\u0917 "], ["\u0917", "\u0902\u0926"], ["\u0917\u093e", "\u095c\u0940 "], ["\u091a\u093f\u0902", "\u0924\u093e "], ["\u091c\u092f", "\u092a\u0941\u0930 "], ["\u091c\u0940\u0935\u093e\u0936\u094d", "\u092e \u0908\u0902\u0927"], ["\u091c\u094b\u0916\u093f", "\u092e"], ["\u091f", "\u0930\u094d"], ["\u0921", "\u0930"], ["\u0921\u0940", "\u090f\u092e "], ["\u0923", "\u093f"], ["\u0924\u094d", "\u0930 \u0938\u0947 "], ["\u0925", "\u092e"], ["\u0926", "\u092c\u093e"], ["\u0926\u0938\u094d\u0924\u093e", "\u0935\u0947"], ["\u092a", "\u095d"], ["\u092a\u0939\u0941\u0902\u091a", "\u0940 "], ["\u092b\u093e\u092f", "\u0926\u093e "], ["\u092c", "\u094d\u092f\u093e"], ["\u092c", "\u094d\u0930\u0947"], ["\u092c\u0940", "\u091c\u0947"], ["\u092d\u0917", "\u0935\u093e\u0928"], ["\u092d\u0947", "\u091c\u0947 "], ["\u092e\u093e", "\u092f"], ["\u092e\u0941", "\u0932\u093e"], ["\u0930\u0935\u093f", "\u0935\u093e\u0930 "], ["\u0930\u093e", "\u0920"], ["\u0930\u093e\u091c\u094d\u092f", " \u092e\u0947\u0902 "], ["\u0930\u0941\u092a\u090f", " \u0915\u0940 "], ["\u0932\u093f", "\u0938\u094d\u091f"], ["\u0935\u093f\u0915\u0938", "\u093f\u0924"], ["\u0936", "\u092c\u094d"], ["\u0938\u094d", "\u0932\u093f"], ["\u093e\u092f", "\u0932 "], [" \u0915\u0930 \u0926\u093f\u092f\u093e ", "\u0917\u092f\u093e\u0964"], [" \u0915\u093f", "\u0938"], [" \u0915\u0947 ", "\u0938\u093e\u092e\u0928\u0947 "], [" \u0915\u0947 \u092c\u093e\u0926", " \u0938\u0947 "], [" \u091c", "\u093e\u0928"], [" \u092a\u0942", "\u091b"], [" \u0938\u093e", "\u092e\u093e\u091c"], [" \u0938\u094d\u0925\u093e\u0928", "\u094b\u0902 \u092a\u0930 "], [",", " \u092a\u0930"], ["5", "."], ["\u0905", "\u0915\u094d\u0938\u0930 "], ["\u0906", "\u0935\u093e\u0938"], ["\u0906\u0917", "\u093e\u092e\u0940 "], ["\u0906\u0917\u0947 ", "\u092c\u0922\u093c"], ["\u0909\u0932\u094d", "\u0932\u0902\u0918"], ["\u0913", "\u092a\u0940"], ["\u0916", "\u093e\u0902"], ["\u0917\u094d\u0930\u093e\u092e", " \u092a\u0902\u091a\u093e\u092f\u0924"], ["\u091a", "\u0915\u094d\u0930"], ["\u091a\u0941\u0928\u094c", "\u0924"], ["\u091c", "\u0902\u0917\u0932"], ["\u091c", "\u0924\u093e"], ["\u091c\u0947", "\u0915\u094d\u091f"], ["\u091f\u094d\u0930", "\u0940 "], ["\u091f\u094d\u0930\u094b", "\u0932 "], ["\u0921\u0940", "\u092a\u0940"], ["\u0924\u093e\u0932\u093e", "\u092c"], ["\u0927", "\u093e\u0930\u094d"], ["\u0927\u093f\u0915", "\u093e\u0930\u0940 "], ["\u0928", " \u0915\u0930 "], ["\u0928\u0940", "\u0924\u093f "], ["\u092a\u093e\u0928", "\u0940 \u0915\u0940 "], ["\u092a\u093e\u0932", "\u0928 \u0915\u0930"], ["\u092a\u0941\u0930\u0941", "\u0937"], ["\u092c", "\u095c\u093e "], ["\u092c\u0939\u0941\u0924 ", "\u0905\u0927\u093f\u0915"], ["\u092c\u0947", "\u091f\u0947 "], ["\u092e\u093e", "\u0924\u093e "], ["\u092e\u093e\u0928", "\u0935 "], ["\u092f\u0942", "\u0928\u093f\u092f"], ["\u0930\u0939\u093e ", "\u0939\u0948, "], ["\u0932\u0917\u092d", "\u0917"], ["\u0935\u0940", "\u0930"], ["\u0936\u0928\u093f", "\u0935\u093e\u0930 "], ["\u0938\u093e", "\u0939\u0942"], ["\u093e\u0928", "\u0941"], ["\u093e\u0930", "\u093e\u092e"], ["\u0947", " \u0915\u094b "], [" \u0905", "\u0927\u094d\u092f\u0915\u094d\u0937"], [" \u0915\u093e\u0930\u094d\u092f\u0915\u094d\u0930\u092e", " \u092e\u0947\u0902 "], [" \u0915\u093f\u090f ", "\u0939\u0948\u0902\u0964"], [" \u0915\u093f\u092f\u093e ", "\u0914\u0930 "], [" \u0915\u0947 ", "\u090f\u0915 "], [" \u0915\u0947 ", "\u0935\u093f"], [" \u0915\u094d\u0935\u093f", "\u0902\u091f"], [" \u092a", "\u091f"], [" \u092c", "\u0902\u0926"], [" \u0939\u093e", "\u0908"], ["3", "9"], ["\u0905\u092b", "\u0938\u0930"], ["\u0907\u0938", "\u092e\u0947\u0902"], ["\u090f", "\u0902\u0921 "], ["\u090f\u0936", "\u093f\u092f\u093e"], ["\u0915", "\u092e"], ["\u0917\u0930\u0940", "\u092c\u0940 "], ["\u091a\u094c", "\u0939\u093e\u0928"], ["\u091c", "\u093e\u0932"], ["\u091c\u0932\u094d\u0926", " \u0939\u0940 "], ["\u091c\u093e\u090f", "\u0901"], ["\u091f\u0940\u0915\u093e", "\u0915\u0930\u0923"], ["\u091f\u0947", "\u0928"], ["\u0922\u093c", " "], ["\u0926\u0947", "\u0928\u0947 \u0915\u0947 \u0932\u093f\u090f "], ["\u0928\u093f\u0915", "\u093e"], ["\u0928\u0947", "\u092a\u093e\u0932"], ["\u0928\u0947\u091f", "\u0935\u0930\u094d"], ["\u092a\u094d\u0930", "\u0935\u093e\u0938\u0940 "], ["\u092b", "\u094d\u0930\u0947"], ["\u092b\u093c", " "], ["\u092c\u0926", "\u0932 "], ["\u092c\u093e", "\u091c\u093c"], ["\u092e\u093e\u0939", " \u092e\u0947\u0902 "], ["\u092e\u0940", "\u0921\u093f\u092f\u093e "], ["\u0930\u0939\u0947 ", "\u0939\u0948\u0902, "], ["\u0930\u093e\u091c", "\u0927\u093e\u0928\u0940 "], ["\u0932", "\u095c"], ["\u0932\u094b", "\u0921"], ["\u0932\u094b\u0917", "\u094b\u0902"], ["\u0936", "\u0930\u093e\u092c "], ["\u0947\u0936\u094d", "\u0935\u0930 "], [" \u0915\u0930\u0940", "\u092c"], [" \u0915\u0939\u093e", " \u0915\u093f"], [" \u0915\u093e\u0930\u094d", "\u092c\u0928 "], [" \u0915\u093f\u0938\u093e\u0928", "\u094b\u0902 \u0915\u0947 "], [" \u0915\u0940 ", "\u091c\u093e \u0938\u0915"], [" \u0915\u0947", " \u0915\u094d\u0937\u0947\u0924\u094d\u0930 \u092e\u0947\u0902 "], [" \u092a", "\u093e\u092f\u093e "], [" \u0938\u0948", "\u0902\u092a\u0932 "], [" \u0938\u094d", "\u092e\u093e\u0930\u094d\u091f"], ["4", "8"], ["7", "."], ["\u0902\u0926\u093f\u0917\u094d", "\u0927"], ["\u0905\u0902", "\u0924"], ["\u0905\u0932\u0917-\u0905\u0932\u0917", " "], ["\u0909", "\u0928 \u092e\u0947\u0902 "], ["\u0909\u0932\u094d", "\u0932\u0947"], ["\u090a", "\u0902\u091a"], ["\u0915", "\u093e\u092e"], ["\u0915", "\u0941\u0930"], ["\u0915\u0941", "\u0932"], ["\u091b\u093e", "\u092a\u0947"], ["\u091c\u093e\u0928\u0947 ", "\u092a\u0930 "], ["\u0924\u0932", "\u092c "], ["\u0925\u0940", " \u0915\u093f "], ["\u0926\u0947", "\u0924\u0947 \u0939\u0941\u090f "], ["\u0928\u093f\u092f", "\u0930 "], ["\u0928\u093f\u0930\u094d\u0927\u093e\u0930", "\u093f\u0924 "], ["\u092a", "\u0924\u094d\u0930"], ["\u092a\u094d", "\u0932\u093e"], ["\u092b\u094d\u0930", "\u0947\u0902"], ["\u092e", "\u093e\u0932 "], ["\u092e\u091c", "\u0926\u0942\u0930 "], ["\u092e\u0939\u093e\u092e\u093e\u0930", "\u0940 \u0915\u0947 "], ["\u0930\u0939", "\u0924\u093e \u0939\u0948\u0964"], ["\u0930\u093e\u091c", "\u0915"], ["\u0935\u093f", "\u0924 "], ["\u0938", "\u0935\u093e\u0930 "], ["\u0938\u0915", "\u0924\u0947 \u0939\u0948\u0902\u0964"], ["\u0938\u094d\u091f", "\u093f"], ["\u0938\u094d\u092a", "\u0930\u094d"], [" \u0905", "\u0917\u094d\u0930"], [" \u0915", "\u0940, "], [" \u0915\u093f\u0938\u093e\u0928", "\u094b\u0902 \u0915\u0940 "], [" \u0915\u0940 \u0915", "\u092e\u0940 "], [" \u092a", "\u0915\u094d\u0937"], [" \u092a", "\u093e\u0930\u094d"], [" \u092a\u0930\u093f", "\u0935\u093e\u0930 "], [" \u092a\u094d\u0930", "\u0924\u093f "], [" \u092c", "\u091c\u0947"], [" \u092e", "\u0930\u0940\u091c "], [" \u092e", "\u0942\u0932"], [" \u0939\u093e", "\u0947"], [" \u0939\u093f", "\u0938\u094d"], ["50", "0 "], ["a", " "], ["\u0905", "\u0936\u094b\u0915 "], ["\u0905\u0927\u093f\u0915", "\u093e\u0930 "], ["\u0906", "\u0909\u091f"], ["\u0907", "\u0927\u0930 "], ["\u0907\u0938\u094d", "\u0932\u093e"], ["\u0909", "\u0924\u093e\u0930"], ["\u0909\u092e\u094d", "\u0930 "], ["\u0916", "\u0940 "], ["\u0917\u093f\u0930\u093e\u0935", "\u091f "], ["\u0917\u0948", "\u0930 "], ["\u0917\u094b", "\u0932\u0940 "], ["\u0917\u094d\u0930\u093e\u092e", " \u092a\u0902\u091a\u093e\u092f\u0924 "], ["\u091a", "\u092a\u0947\u091f"], ["\u091c", "\u0930\u0940"], ["\u091c\u0940", " \u0915\u0940 "], ["\u091d", "\u093e "], ["\u0924\u0947", "\u091c\u093c"], ["\u0925", "\u092e\u093f\u0915 "], ["\u0926", "\u0939"], ["\u0926\u093f", "\u0936\u093e \u092e\u0947\u0902 "], ["\u0926\u0947", "\u0928\u0947 "], ["\u0926\u0947\u0930 ", "\u0930\u093e\u0924 "], ["\u0926\u094d", "\u0935\u0940"], ["\u092a\u0940", "\u090f\u092e"], ["\u092a\u0942", "\u091c\u093e"], ["\u092c", "\u0928\u0947"], ["\u092c", "\u0930\u093e"], ["\u092c\u093e\u0930", "\u093f\u0936 "], ["\u092e", "\u0902\u091a"], ["\u092f", "\u0902 "], ["\u0930", "\u092b\u094d"], ["\u0930\u093e\u0939\u0941", "\u0932 "], ["\u0932\u0947", "\u0928\u0947 "], ["\u0935\u091c", "\u0939"], ["\u0935\u093e\u0938\u094d\u0924\u0935", " \u092e\u0947\u0902 "], ["\u0935\u093f", "\u0921 "], ["\u0935\u094d\u092f\u093e\u092a", "\u093e\u0930\u0940 "], ["\u0936", "\u0949"], ["\u0936\u0947", "\u0937 "], ["\u0938\u091a\u093f", "\u0935"], ["\u0938\u092e", "\u0942\u0939"], ["\u0938\u094d", "\u0924\u0940 "], ["\u093e\u0928", "\u093f"], ["\u093e\u0928\u0947 ", "\u0914\u0930 "], ["\u094b\u0902 \u0915\u0947 ", "\u092c\u093e\u0930\u0947 \u092e\u0947\u0902 "], [" \u0905", "\u092c"], [" \u0905", "\u0930"], [" \u0905", "\u0930\u094d\u0925"], [" \u0915\u0902\u092a", "\u0928\u093f\u092f\u093e"], [" \u0915\u092e", "\u091c\u094b\u0930 "], [" \u0915\u0940 ", "\u090f\u0915 "], [" \u0915\u0947 \u0906", "\u0938"], [" \u0915\u0947 \u092c\u093e\u0935", "\u091c\u0942\u0926"], [" \u092c", "\u0928\u093e "], [" \u092e\u0947\u0902 ", "\u0938\u0947 "], [" \u0938\u0930", "\u092a\u0902\u091a"], ["\u0906\u0935", "\u0902\u091f"], ["\u0907", "\u0932\u0947\u0915\u094d\u091f\u094d\u0930"], ["\u0907\u0902\u0924", "\u091c\u093e\u0930"], ["\u0908 ", "\u0939\u0948\u0964"], ["\u090f\u092b", "\u0906\u0908"], ["\u0913", "\u0935\u0930"], ["\u0915", "\u0924 "], ["\u0916", "\u0930 "], ["\u0916", "\u093e\u0932\u0940 "], ["\u0917\u0923", "\u0947\u0936"], ["\u091a\u0941\u0928\u094c", "\u0924\u0940 "], ["\u091b", "\u0940"], ["\u091c\u093e\u0928\u0947 ", "\u0938\u0947 "], ["\u091c\u093f\u0928", "\u094d\u0939\u094b\u0902\u0928\u0947 "], ["\u0921\u0947\u091f", "\u093e "], ["\u0926", "\u093f\u0915\u094d"], ["\u0926\u0941\u0915\u093e\u0928", "\u0926\u093e\u0930 "], ["\u0928", "\u0939\u0940 "], ["\u0928\u093e\u0930", "\u093e"], ["\u0928\u0947", " \u0915\u0947 \u0915\u093e\u0930\u0923 "], ["\u0928\u0947\u0936\u0928", "\u0932"], ["\u092a", "\u0928 "], ["\u092a\u0930\u093f", "\u0923\u093e\u092e "], ["\u092a\u0941\u0932\u093f", "\u0938 \u0915\u0940 "], ["\u092c", "\u091a\u094d"], ["\u092c\u0932\u094d", "\u0932\u0947"], ["\u092c\u094b\u0927", "\u093f\u0924"], ["\u092d", "\u0930 \u0915\u0947 "], ["\u092e", "\u0927\u0941"], ["\u092e\u093f", "\u0936\u094d\u0930"], ["\u092e\u0943", "\u0924"], ["\u092f\u093e", "\u0938 "], ["\u0930", "\u094b\u0902 \u092e\u0947\u0902 "], ["\u0930\u093e", "\u0938"], ["\u0935\u093e\u0938\u094d\u0924\u0935 ", "\u092e\u0947\u0902, "], ["\u0935\u093f", "\u0924\u094d\u0924 "], ["\u0935\u093f\u0915\u0938", "\u093f\u0924 "], ["\u0935\u093f\u0930\u094b\u0927", "\u0940 "], ["\u0936\u094d", "\u092e\u0940"], [" \u0915\u093e\u0930\u094b", "\u092c\u093e\u0930"], [" \u0915\u093e\u0930\u094d", "\u0921 "], [" \u0915\u093f\u090f ", "\u0917\u090f"], [" \u0915\u0947 ", "\u0926\u094d\u0935\u093e\u0930\u093e "], [" \u0915\u0947 ", "\u0938"], [" \u0915\u0949", "\u0932\u0947\u091c "], [" \u0915\u094b", "\u0930\u094d\u091f "], [" \u0915\u094b \u0926\u0947\u0916", "\u0924\u0947 \u0939\u0941\u090f "], [" \u092e\u093f", "\u0936\u094d\u0930"], [" \u0938", "\u092e\u093e\u0930"], [" \u0938\u0902\u0915\u094d\u0930\u092e", "\u093f\u0924"], [" \u0938\u092e", "\u0930\u094d\u0925"], [" \u0939\u094b\u0902", "\u0917\u0947\u0964"], [", ", "\u0928"], ["1", ","], ["4", "9"], ["a", "l"], ["\u0901", "\u091a "], ["\u0905", "\u091c\u094d\u091e\u093e\u0924 "], ["\u0905", "\u0939\u092e"], ["\u0905\u0902", "\u091c\u093e\u092e "], ["\u0909\u0938\u0915\u0947 ", "\u092c\u093e\u0926 "], ["\u0915\u094d", "\u091f "], ["\u0916", "\u0930"], ["\u091f", "\u0915\u094d\u0915\u0930 "], ["\u091f\u0940", " \u0915\u0940 "], ["\u0920\u0940", "\u0915"], ["\u0924", "\u0930\u093e"], ["\u0924\u0903", " "], ["\u0924\u092c ", "\u0924\u0915 "], ["\u0926\u0948", "\u0928\u093f\u0915 "], ["\u0928", "\u0949"], ["\u092a\u0902\u091a", "\u093e\u092f\u0924 "], ["\u092a\u093e", "\u0947"], ["\u092b\u093e", "\u0908 "], ["\u092e", "\u0902\u0926"], ["\u092e\u093e\u0939", "\u094c"], ["\u092e\u0941\u0916\u094d\u092f", "\u092e\u0902\u0924\u094d\u0930"], ["\u092e\u0943", "\u0924\u0915"], ["\u0930\u0942\u092a", " \u092e\u0947\u0902"], ["\u0935\u093f", "\u0935\u093e\u0939"], ["\u0938", "\u092b\u0932 "], ["\u0938\u0902", "\u0915"], ["\u0938\u0902", "\u0916\u094d\u092f\u093e"], ["\u0939\u094b ", "\u0917\u090f\u0964"], ["\u0947", "\u0902\u0926\u094d\u0930"], ["\u094b\u0902 ", "\u0935 "], [" \u0915\u0930", "\u0947\u0917\u0940\u0964"], [" \u0915\u0930\u0928\u093e ", "\u091a\u093e\u0939\u093f\u090f\u0964"], [" \u0915\u093f", "\u092e\u0940 "], [" \u0915\u0940", "\u092e\u0924"], [" \u0915\u094b", " \u0938\u0940"], [" \u092c", "\u0928 "], [" \u0938\u0947\u0902\u091f", "\u0930 "], [" \u0938\u094d\u0935", "\u091a\u094d\u091b"], [" \u0939\u094b ", "\u0917\u090f\u0964"], ["3", "8"], ["e", "r"], ["\u0906", "\u0932"], ["\u0906\u092f\u094b", "\u091c\u0928"], ["\u0906\u0930", "\u0915\u094d\u0937"], ["\u0907\u0938", "\u0915\u094b "], ["\u0909", "\u092d\u0930"], ["\u0909\u0924\u094d\u092a\u093e\u0926", "\u0915"], ["\u0909\u092a\u093e", "\u0927\u094d\u092f\u0915\u094d\u0937 "], ["\u0916\u0947", "\u0932 "], ["\u091a\u0947", "\u092f\u0930"], ["\u0924", " \u0915\u094b "], ["\u0926\u0947", "\u0928\u0947 \u0915\u093e "], ["\u0926\u094b", "\u092c\u093e\u0930\u093e "], ["\u0926\u094d", "\u0935\u093f\u0924"], ["\u0928", "\u094d\u0939"], ["\u0928\u093f\u0930\u094d", "\u092d\u0930"], ["\u0928\u093f\u0930\u094d\u0935\u093e", "\u091a"], ["\u092c\u0928\u093e\u090f ", "\u0930\u0916"], ["\u092c\u094b", "\u0932"], ["\u092d", "\u0930\u093e "], ["\u092e\u094c", "\u0915\u093e "], ["\u0930\u0939\u093e ", "\u0939\u0948 "], ["\u0935", "\u0939\u093e\u0902"], ["\u0935\u093f\u092d\u093e\u0917 ", "\u0926\u094d\u0935\u093e\u0930\u093e "], ["\u0936\u0902", "\u0915\u093e "], ["\u0936\u093f\u0915", "\u093e\u0930 "], ["\u0938", "\u0928\u094d"], ["\u0938\u0902\u092c\u0902\u0927", "\u093f\u0924"], ["\u0938\u093f\u0902\u0939 ", "\u0928\u0947 "], ["\u0938\u0947", "\u0928\u093e "], ["\u0947", "\u0928\u094d\u0926\u094d\u0930 "], ["\u094b\u0902 \u0915\u0947 ", "\u092c\u0940\u091a"], ["\u094d\u092f", "\u093e "], [" ", "-"], [" \u0915\u0930 ", "\u0932\u0940 "], [" \u0915\u0930\u094b", "\u095c"], [" \u0915\u093f", "\u0938\u094d"], [" \u0915\u0940 ", "\u091c\u093e \u0930\u0939\u0940 "], [" \u0915\u0941", "\u0936"], [" \u0915\u0947", " \u0915\u0908 "], [" \u092a", "\u093e\u0928"], [" \u092a", "\u0949"], [" \u092a\u093e\u0930", "\u094d\u0937\u0926"], [" \u092a\u093f", "\u0924\u093e "], [" \u092a\u094d\u0930", "\u092d\u093e\u0930\u0940 "], [" \u092a\u094d\u0930", "\u094c\u0926\u094d\u092f\u094b\u0917\u093f\u0915"], [" \u092e\u0941", "\u0916"], [" \u0938", "\u094c"], [" \u0938\u0902", "\u0938\u094d\u0925\u093e\u0928"], [" \u0938\u093e", "\u0939"], [" \u0938\u093f\u0902\u0939 ", "\u0928\u0947 "], [" \u0938\u0940", "\u092e\u093e "], ["-", "20"], ["3", "2"], ["4", " \u092e\u0947\u0902 "], ["\u0905\u0932\u093e", "\u0935\u093e "], ["\u0906\u0924", "\u0902\u0915"], ["\u0908", " \u0938\u0947 "], ["\u0909\u0926\u093e\u0939\u0930\u0923 \u0915\u0947 \u0932\u093f\u090f", ", "], ["\u0909\u092a", "\u091a\u093e\u0930 "], ["\u0909\u092e", "\u094d\u0930"], ["\u090f", "\u091f\u0940"], ["\u090f\u0938", "\u0906\u0908"], ["\u0910", "\u0938\u0947"], ["\u0915\u093e", "\u0909\u0902\u091f"], ["\u0915\u093f", "\u0938\u094d\u0924"], ["\u0916\u093c", "\u0924\u0930"], ["\u091c\u0932\u094d", "\u0926\u0940 "], ["\u091f", ", "], ["\u0920", "\u093e "], ["\u0924\u0915 \u092a", "\u0939\u0941\u0901\u091a"], ["\u0924\u0915\u0928\u0940", "\u0915\u0940 "], ["\u0924\u094c", "\u0930 "], ["\u0926\u093f\u0932", "\u0940"], ["\u0928", "\u0915\u094d"], ["\u0928", "\u091c"], ["\u0928 ", "\u092d\u0940 "], ["\u0928\u0939\u0940\u0902", " \u0915\u0930 \u0938\u0915"], ["\u0928\u093f", "\u0930\u0902"], ["\u092b", "\u0930 "], ["\u092c\u094d", "\u092c"], ["\u092e\u093e", "\u0901"], ["\u092f", "\u093e\u0928 "], ["\u0930\u093e", "\u0902\u091a"], ["\u0932\u0947", "\u0928\u093e "], ["\u0932\u094d", "\u0938 "], ["\u0935\u0939\u093e\u0902 ", "\u0938\u0947 "], ["\u0936\u0941", "\u0915\u094d"], ["\u0938", " \u0938\u0947 "], ["\u0938", "\u092e\u0941\u0926\u093e\u092f"], ["\u0938\u0926", "\u0938\u094d\u092f "], ["\u0939\u093f\u0938\u093e\u092c", " \u0938\u0947 "], ["\u0939\u0948 \u091c", "\u094b"], ["\u094b\u0902 ", "\u092e\u0947\u0902, "], ["\u094d\u0937\u0947", "\u0924\u094d\u0930"], [" \u0915\u0932", "\u094d\u092f\u093e\u0923"], [" \u0915\u0947 ", "\u092e"], [" \u0915\u0947 \u092a\u094d\u0930", "\u0924\u093f "], [" \u091c\u0928\u0935", "\u0930\u0940"], [" \u092a\u094d\u0930", "\u0926\u0930\u094d\u0936\u0928"], [" \u092e\u093f\u0932", "\u093f\u092f\u0928 "], [" \u0938", "\u0939\u0940 "], [" \u0939\u094b ", "\u0917\u092f\u093e \u0939\u0948\u0964"], [", ", "\u092c"], [", ", "\u0939"], ["\u0902\u0926", "\u0941"], ["\u0905", "\u0902\u0926\u093e"], ["\u0905\u0932\u0917", " "], ["\u0907\u0938 ", "\u092c\u093e\u0930"], ["\u0907\u0938 ", "\u092c\u0940\u091a"], ["\u0909\u092a\u0932\u092c\u094d\u0927", " \u0915\u0930"], ["\u090b", "\u0923"], ["\u090f\u0915", "\u0924\u094d\u0930"], ["\u0916\u093e\u0926", "\u094d\u092f "], ["\u0917\u094b", "\u0935\u093f"], ["\u091c", "\u0926"], ["\u091f", " \u0915\u093e "], ["\u0921\u0949", "\u0915\u094d\u091f"], ["\u0924\u093e ", "\u0939\u0948 \u0915\u093f"], ["\u0924\u0947 \u0939\u0948\u0902 ", "\u0924\u094b "], ["\u0925", "\u093f\u0924 "], ["\u0927\u092e", "\u0915\u0940 "], ["\u0928\u093f\u0917\u0930", "\u093e\u0928\u0940 "], ["\u092a\u094d\u0930", "\u0935\u093e\u0938"], ["\u092c\u0922\u093c", "\u094b"], ["\u092c\u093e", "\u0908"], ["\u092c\u0940", "\u090f\u0938"], ["\u0930\u0939", "\u0947\u0902\u0917"], ["\u0930\u093f", "\u0924 "], ["\u0930\u0941\u092a", "\u092f"], ["\u0930\u0947\u0932", "\u0935\u0947"], ["\u0930\u094d", "\u0926"], ["\u0932\u0949\u0928\u094d", "\u091a"], ["\u0938\u0902", "\u092d\u0935"], ["\u0938\u092e\u0930\u094d\u0925", "\u0928"], ["\u0938\u094d", "\u091f\u0940"], ["\u0939\u0948", "?"], ["\u093e", " \u0915\u094b "], ["\u0947", "\u0915"], ["\u0947\u0902 ", "\u0938\u0947 "], [" \u0915\u0930 ", "\u0926\u0940\u0964"], [" \u0915\u093f\u092f\u093e ", "\u091c\u093e\u090f\u0964"], [" \u0915\u0940 ", "\u0924\u0930\u092b \u0938\u0947 "], [" \u0915\u0940 ", "\u092d\u0940 "], [" \u0915\u0947 ", "\u0938\u0902"], [" \u091c\u0948", "\u0938\u0947 "], [" \u092a", "\u0924\u094d\u0930"], [" \u0938\u0942", "\u091a\u0928\u093e "], [" \u0939\u094b", "\u0924\u0940 \u0939\u0948\u0964"], ["\u0906", "\u0936\u0940"], ["\u0906 ", "\u0930\u0939\u0947 "], ["\u0906\u0938", "\u092a\u093e\u0938 \u0915\u0947 "], ["\u0907", "\u0915\u093e"], ["\u090f", "\u092e\u094d"], ["\u090f\u0915 ", "\u0914\u0930 "], ["\u090f\u091c\u0947\u0902", "\u0938\u0940 "], ["\u0913", "\u092e"], ["\u0915", "\u0938\u094d"], ["\u0917", "\u093e\u0930\u094d\u0921"], ["\u0917\u094b", "\u092f"], ["\u091a", "\u0902\u0926\u094d\u0930 "], ["\u091c", "\u093f\u0915"], ["\u0925", "\u092e "], ["\u0925\u093e\u0928", "\u093e \u092e\u0947\u0902 "], ["\u0926\u0947", "\u0902\u0917\u0947\u0964"], ["\u0926\u0947\u0936", "\u094b\u0902 \u0915\u094b "], ["\u0928\u0917\u0930 ", "\u092a\u093e\u0932"], ["\u0928\u093e\u0907", "\u091c\u0940"], ["\u0928\u0947", "\u0924\u093e\u0913\u0902 "], ["\u0928\u0947 \u0915", "\u093f\u092f\u093e\u0964"], ["\u092a\u0924\u094d", "\u0924\u093f"], ["\u092b", "\u093e\u0928"], ["\u092c\u0947", "\u091f"], ["\u092e\u0947", "\u0930\u093e "], ["\u092e\u0948", "\u0928 "], ["\u092f\u0939 \u0938\u0941", "\u0928\u093f\u0936\u094d\u091a\u093f\u0924"], ["\u092f\u093e\u0924\u094d\u0930", "\u0940 "], ["\u0930\u093e\u0937\u094d\u091f\u094d\u0930", "\u092a\u0924\u093f "], ["\u0932\u0915\u094d\u0937", "\u0923 "], ["\u0932\u0947", "\u0902 "], ["\u0935", "\u0924 "], ["\u0935 ", "\u0905\u0928\u094d\u092f"], ["\u0935\u093f\u0938\u094d\u0924", "\u093e\u0930"], ["\u0936\u0939", "\u0930\u0940 "], ["\u0936\u0941\u0915\u094d\u0930", "\u0935\u093e\u0930 "], ["\u0938", "\u0915\u094d\u0937"], ["\u0938\u093e\u092e", "\u093e\u0928 "], ["\u0938\u0940", "\u090f\u092e "], ["\u0938\u094d\u0925", "\u093e "], ["\u0939\u094b ", "\u0930\u0939\u093e \u0939\u0948\u0964"], ["\u0939\u094b ", "\u0930\u0939\u0940 \u0939\u0948\u0964"], ["\u0939\u094b\u0917", "\u093e, "], ["\u0939\u094d", "\u0935\u093e\u0928"], ["\u093f\u092f", "\u0928"], ["\u093f\u0932", "\u0947"], ["\u0940", "\u0915\u0930\u0923"], ["\u094b\u0902 \u0915\u0947 ", "\u092c\u0940\u091a "], [" ", "("], [" \u0915\u0947 ", "\u0928\u0947\u0924\u0943\u0924\u094d\u0935 \u092e\u0947\u0902 "], [" \u0915\u094b", " \u0938\u0941"], [" \u0915\u094d", "\u0932\u093e"], [" \u092a\u094d\u0930", "\u0924\u093f\u092f\u094b\u0917\u093f"], [" \u092a\u094d\u0930\u0936\u093e\u0938", "\u0928 "], [" \u092c", "\u0924\u093e"], [" \u092c", "\u094d"], [" \u092c\u0948", "\u0902\u0915"], [" \u092e", "\u0902\u0917\u0932"], [" \u0938\u094d\u091f\u093e", "\u092b"], [" \u0939\u094b ", "\u0917\u0908\u0964"], ["20", "0 "], ["\u0906", "\u0924\u094d\u092e"], ["\u0906", "\u0926"], ["\u0906", "\u0927\u093e\u0930 \u092a\u0930 "], ["\u0906", "\u0928\u093e "], ["\u0906\u092f", "\u093e \u0939\u0948\u0964"], ["\u0907", "\u0921 "], ["\u0907\u0938", "\u0940"], ["\u0909\u092a\u0932\u092c\u094d\u0927", " "], ["\u090f", ", "], ["\u0915\u093e\u0930\u094d\u092f\u0915\u094d\u0930\u092e", " \u092e\u0947\u0902 "], ["\u0915\u094d\u092f", "\u093e "], ["\u0917\u0920", "\u092c\u0902\u0927"], ["\u091c\u093f\u0938", " \u092a\u0930 "], ["\u091f\u0942", "\u091f"], ["\u0926", "\u092c\u093e\u0935"], ["\u0926\u0941", "\u0937\u094d"], ["\u0928\u0917\u0930", " \u0915\u0947 "], ["\u0928\u0940", "\u0937"], ["\u092a\u0939\u0941\u0902\u091a", "\u0915\u0930 "], ["\u092a\u0941", "\u0930\u093e"], ["\u092a\u094d\u0930", "\u0938\u093e\u0926"], ["\u092a\u094d\u0930", "\u094c\u0926\u094d\u092f\u094b\u0917\u093f\u0915"], ["\u092e\u0939\u093f\u0932\u093e", "\u090f\u0902 "], ["\u092e\u093e\u0928", "\u0928\u093e "], ["\u0930\u0916\u093e ", "\u0917\u092f\u093e \u0939\u0948\u0964"], ["\u0930\u0935\u093f", "\u0935\u093e\u0930 \u0915\u094b"], ["\u0930\u093e\u0924", " \u0915\u094b "], ["\u0930\u093f\u092f\u093e ", "\u092e\u0947\u0902 "], ["\u0932", "\u092c "], ["\u0932\u093e", "\u0947\u0917"], ["\u0932\u094d", "\u0921 "], ["\u0935\u093e", "\u0902 "], ["\u0937", "\u093f\u0924 "], ["\u0938\u0930\u094d", "\u0935"], ["\u0938\u093e\u092e\u093e\u0928", "\u094d\u092f"], ["\u0938\u0942\u091a", "\u0940 "], ["\u0938\u094d", "\u092e\u093e\u0930\u094d\u091f"], ["\u0939\u0930", "\u0947 "], ["\u0939\u093e", "\u0930 \u092e\u0947\u0902 "], ["\u0939\u0941", "\u090f\u0964"], ["\u0939\u094b ", "\u0917\u0908\u0964"], ["\u0940", "."], ["\u094b\u0902 \u0915\u094b ", "\u0932\u0947\u0915\u0930 "], [" \u0915", "\u0938\u094d"], [" \u0915\u0947 \u092c\u093e\u0935", "\u091c\u0942\u0926 "], [" \u0915\u094b ", "\u0932\u0947\u0915\u0930"], [" \u0938\u0902", "\u0938\u093e\u0927\u0928"], [" \u0938\u0947\u0902\u091f", "\u0930 \u092e\u0947\u0902 "], ["2", "6 "], ["\u0905", "\u0926\u093e\u0932"], ["\u0905\u0927\u093f\u0915\u093e\u0930", "\u093f\u092f\u094b\u0902 \u0928\u0947 "], ["\u0906", "\u0926\u0947\u0936 "], ["\u0906", "\u0927\u093e\u0930 "], ["\u0906", "\u092f "], ["\u0906 ", "\u0930\u0939\u0947 \u0939\u0948\u0902\u0964"], ["\u0906\u0924\u094d", "\u092e\u0939"], ["\u0907", "\u092c\u094b"], ["\u0909\u0932\u094d\u0932\u0947", "\u0916\u0928"], ["\u0911", "\u0915\u094d\u0938\u0940"], ["\u0915", "\u0932\u0947\u0915\u094d\u091f\u0930 "], ["\u0917\u094c\u0930", "\u0924\u0932\u092c "], ["\u0917\u095d", " "], ["\u0918\u0902\u091f", "\u0947 \u092e\u0947\u0902 "], ["\u091b\u094b", "\u0921\u093c "], ["\u091c\u093e \u0938\u0915", "\u0947\u0964"], ["\u091c\u093f\u0932", "\u0947 "], ["\u091c\u094b", "\u0921\u093c"], ["\u091f\u094d", "\u0935\u093f"], ["\u0926\u093e", "\u0916\u093f\u0932"], ["\u0926\u093f\u0928", " \u0915\u093e "], ["\u0926\u093f\u0938\u0902", "\u092c"], ["\u0926\u0940", "\u092a "], ["\u0928\u0939\u0940\u0902 \u0939\u094b", " \u0938\u0915"], ["\u0928\u093f\u0926\u0947\u0936", "\u0915 "], ["\u0928\u0947 ", "\u0938\u0947"], ["\u092a\u094d\u0930", "\u0917\u0924\u093f"], ["\u092b\u0932\u0938\u094d\u0935\u0930\u0942\u092a", " "], ["\u092c", "\u0915"], ["\u092c\u0941\u091c\u0941\u0930\u094d", "\u0917"], ["\u092e\u0902\u0921", "\u0940 "], ["\u092e\u0926\u0926", " \u0938\u0947 "], ["\u092e\u0930", "\u092e\u094d"], ["\u092e\u093f\u0932", "\u093e\u0964"], ["\u092e\u0947\u0902", " \u0915\u0908 "], ["\u0930", "\u0918\u0941"], ["\u0930\u094b", "\u0915\u093e "], ["\u0930\u094b\u0915", "\u0925\u093e\u092e"], ["\u0932\u093e\u092a\u0930\u0935\u093e", "\u0939\u0940 "], ["\u0932\u0940", ", "], ["\u0935", "\u0947\u0902"], ["\u0935\u093e", "\u0939 "], ["\u0935\u093f", "\u0935\u093f\u0927"], ["\u0935\u093f\u0915", "\u094d\u0930"], ["\u0935\u093f\u0915\u093e\u0938 ", "\u0932\u0915\u094d\u0937\u094d\u092f"], ["\u0936\u0932 \u092e\u0940\u0921\u093f\u092f\u093e ", "\u092a\u0930 "], ["\u0936\u093e\u0902", "\u0924 "], ["\u0936\u0940\u0918", "\u094d\u0930 "], ["\u0938\u094d", "\u0935 "], ["\u0938\u094d\u092a", "\u0937\u094d\u091f "], ["\u0939\u0948 \u0915\u093f ", "\u0935\u0947 "], ["\u0942", "\u0932\u0940 "], ["\u094b\u0902 ", "("], ["\u094b\u0902 ", "\u0924\u0915 "], [" \u0915", "\u0928\u0947\u0915\u094d"], [" \u0915\u0930", "\u0928\u0947 \u0935\u093e\u0932"], [" \u0915\u0930\u0928\u093e ", "\u0939\u094b\u0917\u093e\u0964"], [" \u0915\u0930\u093e", "\u092f\u093e\u0964"], [" \u0915\u093f", "\u0932\u094b "], [" \u0915\u0940", " \u0915\u093e\u0930\u094d\u0930\u0935\u093e\u0908"], [" \u0915\u0940 \u0915\u0940", "\u092e\u0924 "], [" \u0915\u0947", "\u0928\u094d\u0926\u094d\u0930"], [" \u0915\u094b \u0938", "\u0942"], [" \u091c", "\u0917\u0939"], [" \u091c", "\u093e\u0930\u0940 "], [" \u092a", "\u0926\u093e\u0927\u093f\u0915\u093e\u0930\u0940 "], [" \u092e\u0948", "\u091a"], [" \u0938\u0926", "\u0938\u094d\u092f "], [" \u0938\u0940", "\u092e\u093e"], [" \u0938\u0947", ", "], [" \u0938\u094d", "\u0924\u0930"], [" \u0939", "\u093e\u0938"], ["\u0907", "\u0902\u0926\u094d\u0930"], ["\u0907\u0932\u093e", "\u0915\u094b\u0902 \u092e\u0947\u0902 "], ["\u0907\u0932\u093e\u091c", " \u0915\u0947 \u0932\u093f\u090f "], ["\u0909\u0928", "\u0915\u094b "], ["\u0917", "\u0921\u094d"], ["\u0917\u0902\u092d\u0940", "\u0930"], ["\u0917\u0908 ", "\u0939\u0948\u0902\u0964"], ["\u091a\u0932 ", "\u0930\u0939\u0947 "], ["\u091c", "\u0939\u093e\u0902"], ["\u091c\u093e", "\u0924\u093f"], ["\u0922\u0902\u0917", " \u0938\u0947 "], ["\u0924\u0948\u0928\u093e", "\u0924 "], ["\u0925\u0947 ", "\u0914\u0930 "], ["\u0926\u093e", "\u0938 "], ["\u0926\u0940", ", "], ["\u0928", "\u094d\u092f\u093e"], ["\u0928\u0917\u0930 ", "\u092a\u0930\u093f\u0937\u0926"], ["\u0928\u094d", "\u0935\u092f"], ["\u092c\u093f\u0915", "\u094d\u0930"], ["\u092c\u0940", "\u092e\u093e\u0930\u0940 "], ["\u092e\u093e", "\u092b"], ["\u092e\u093e\u092e\u0932\u0947 ", "\u0938\u093e\u092e\u0928\u0947 "], ["\u092e\u093e\u0932", "\u093f\u0915"], ["\u092e\u0942\u0932", "\u094d\u092f\u093e\u0902\u0915"], ["\u0930\u0939\u0940 ", "\u0939\u0948\u0902\u0964"], ["\u0930\u093e", "\u092f "], ["\u0932\u093e", "\u0917\u0924 "], ["\u0935\u093f", "\u092a\u0915\u094d\u0937"], ["\u0935\u093f\u0915\u093e\u0938", " \u0915\u0947 \u0932\u093f\u090f "], ["\u0938\u092e\u091d", "\u094c"], ["\u0938\u0930\u094d", "\u0935\u093e"], ["\u0938\u094d\u0935", "\u0938\u094d\u0925"], ["\u0939\u093e\u0932", "\u0924 "], ["\u093e", "\u0935"], ["\u093e\u0930\u093e", "\u092e "], ["\u093f", "\u0902\u0917 "], ["\u094b\u0902 \u0915\u0947 ", "\u0905\u0928\u0941\u0938\u093e\u0930 "], [" \u0915", "\u094d\u092f\u093e"], [" \u0915\u0930", "\u0915\u0947"], [" \u0915\u093e \u0915\u0939\u0928\u093e ", "\u0939\u0948 \u0915\u093f"], [" \u0915\u094b\u0930\u094d\u091f", " \u092e\u0947\u0902 "], [" \u0915\u094d\u0930", "\u093e\u0902"], [" \u092e\u0947\u0902 ", "\u0939\u0940 "], [" \u0938\u0915", "\u0924\u0940 \u0939\u0948\u0964"], [" \u0938\u0939\u093e\u092f", "\u0924\u093e "], [" \u0938\u0941\u0935\u093f\u0927", "\u093e"], [" \u0939", "\u093e\u0932"], ["9", "9"], ["\u0902\u0917", "\u0940 "], ["\u0905", "\u0927\u0940\u0915\u094d\u0937"], ["\u0906\u0935\u0947\u0926", "\u0928"], ["\u0907\u0924", "\u0928\u0947 "], ["\u0909\u0920", "\u093e "], ["\u0909\u092a", "\u0916\u0902\u0921"], ["\u090f\u0915\u094d", "\u091f\u093f\u0935"], ["\u090f\u091a", "\u0913"], ["\u0913\u0902", " \u0915\u0947 \u0932\u093f\u090f "], ["\u0914\u0930 ", "\u092d\u0940 "], ["\u0915\u093f", "\u0938\u0940 "], ["\u0917", "\u0924\u093f "], ["\u0917\u094b", "\u092a\u093e\u0932"], ["\u091c", " \u0938\u0947 "], ["\u091c\u0928", "\u0915 "], ["\u0920\u093e", "\u0915\u0941\u0930"], ["\u0924\u093e\u0913\u0902", " \u0915\u0940 "], ["\u0924\u093f", "\u0935\u093e\u0930\u0940 "], ["\u0925", "\u094d"], ["\u0926\u092c\u093e", "\u0935 "], ["\u0927", "\u094d\u092f "], ["\u0928", " \u0915\u0947\u0935\u0932 "], ["\u0928\u093f\u0915", "\u0932\u0947"], ["\u0928\u093f\u0917\u0947", "\u091f\u093f\u0935 "], ["\u0928\u0947", "\u0902 "], ["\u092c\u094b", "\u0932\u0947"], ["\u092d\u094b", "\u091c\u0928 "], ["\u092f\u0939 ", "\u0939\u0948 \u0915\u093f"], ["\u092f\u0941\u0935\u0915", " \u0915\u0940 "], ["\u0930\u0939", "\u0928\u0947 \u0915\u0940 "], ["\u0930\u093e\u091c\u094d\u092f", " \u0905\u092e\u0947\u0930\u093f\u0915"], ["\u0930\u0947", "\u092b\u0930"], ["\u0935\u093e\u0930", "\u094d\u0937"], ["\u0935\u0947\u092c", "\u0938\u093e\u0907"], ["\u0935\u0948", "\u0938\u0947 "], ["\u0936\u092c\u094d", "\u0926"], ["\u0938\u093f", "\u0938\u094d\u091f"], ["\u0938\u0948", "\u0902\u092a"], ["\u0939\u0948 ", "\u091c\u093f\u0938\u092e\u0947\u0902 "], ["\u0939\u094b", "\u092e"], ["\u093e", "\u0927\u0940"], ["\u093f\u092f\u094b\u0902 \u0915\u0947 ", "\u0938\u093e\u0925"], ["\u094b ", "\u092e\u0947\u0902 "], [" \u0905", "\u0930\u094d"], [" \u0915", "\u0928\u094d"], [" \u0915", "\u0932\u093e"], [" \u0915\u093e\u0947\u0930\u093e\u0947", "\u0928\u093e "], [" \u0915\u0947 \u0905", "\u0927\u094d\u092f\u0915\u094d\u0937"], [" \u0915\u094b\u0930\u094b\u0928\u093e", " \u0915\u0940 "], [" \u091c", "\u093f\u0932\u093e "], [" \u092a\u0930\u0940\u0915\u094d\u0937", "\u093e"], [" \u092a\u0930\u0940\u0915\u094d\u0937", "\u093e "], [" \u092a\u093e", "\u0920"], [" \u092e\u0939\u0940", "\u0928\u0947 "], [" \u092e\u0947\u0902 ", "\u0930\u0916"], [" \u0938", "\u0902\u0917"], [" \u0938\u091a\u093f", "\u0935"], [" \u0938\u094d\u092a", "\u0937\u094d\u091f "], [" \u0939", "\u091c\u093e\u0930 \u0938\u0947 "], [", \u092a", "\u0940"], ["-", "\u092c\u093e\u0930 "], ["0", "."], ["3", " \u092e\u0947\u0902 "], ["4", "5 "], ["t", "i"], ["\u0905\u0928\u0947", "\u0915 "], ["\u0905\u092a", "\u0947"], ["\u0905\u0930", "\u092c"], ["\u0906", "\u0928\u0947 \u0938\u0947 "], ["\u0909", "\u0924\u0930"], ["\u090f ", "\u0917\u090f "], ["\u0911", "\u091f\u094b"], ["\u0911", "\u092a\u0930\u0947\u0936"], ["\u0915", "\u094b\u0902 \u0915\u093e "], ["\u0917\u0922\u093c", " "], ["\u0917\u093e", "\u0921\u093c"], ["\u0918", "\u0930 \u0915\u0947 "], ["\u091a\u094b", "\u0930"], ["\u091b", "\u0939"], ["\u091c\u092c ", "\u0924\u0915 "], ["\u091c\u0930\u0942\u0930\u0924 ", "\u0939\u0948\u0964"], ["\u091c\u093e\u090f\u0917", "\u093e"], ["\u091c\u093e\u090f\u0917", "\u093e, "], ["\u091c\u093f", "\u0924\u0947"], ["\u0921\u093e", "\u0907"], ["\u0924\u0930\u0939", " \u0915\u0940 "], ["\u0924\u094b", "\u0937 "], ["\u0924\u094d", "\u0924\u093f"], ["\u0926 ", "\u0914\u0930 "], ["\u0926\u0940", "\u0930\u094d"], ["\u0926\u0947", "\u0935\u0947"], ["\u0926\u0947\u0916", "\u0924\u0947 \u0939\u0941\u090f"], ["\u0926\u0947\u0936", "\u094b\u0902 \u0915\u0940 "], ["\u0928", "\u094b\u0902 \u0938\u0947 "], ["\u0928\u093f\u0915", "\u093e\u0932\u093e "], ["\u0928\u093f\u092f", "\u094b"], ["\u0928\u093f\u092f\u092e", "\u093f\u0924 "], ["\u0928\u093f\u0930", "\u094d\u092f\u093e"], ["\u092a\u0924\u093e ", "\u091a\u0932"], ["\u092a\u0942", "\u091c\u093e "], ["\u092a\u0942", "\u0930\u093e"], ["\u092c", "\u093f\u0932 "], ["\u092e\u0941", "\u0915\u094d\u0924 "], ["\u092e\u094d\u092e\u0947", "\u0932"], ["\u0930", "\u0915\u094d\u0924"], ["\u0930\u093e\u0938", "\u0924 \u092e\u0947\u0902 "], ["\u0930\u093e\u0938\u094d", "\u0924\u0947 "], ["\u0932", "\u093e\u092f\u093e "], ["\u0932\u093f", "\u0916\u093e"], ["\u0935\u093f", "\u091c\u092f "], ["\u0936\u0939\u0940", "\u0926"], ["\u0938\u094d\u091f", "\u0947\u0936"], ["\u0938\u094d\u0935\u0940", "\u0915\u093e\u0930"], ["\u094b\u0902 \u0915\u094b ", "\u092d\u0940 "], [" \u0915", "\u092a\u0942"], [" \u0915\u0930\u0928\u0947 ", "\u0932\u0917"], [" \u0915\u0941\u092e\u093e\u0930 ", "\u0928\u0947 \u092c\u0924\u093e\u092f\u093e \u0915\u093f "], [" \u0915\u0949", "\u0928\u094d"], [" \u091c", "\u0930\u0942"], [" \u092a\u093f", "\u091b"], [" \u092a\u094d\u0930", "\u0924\u094d\u092f"], [" \u092a\u094d\u0930", "\u0938\u094d\u0924\u093e"], [" \u092c", "\u0932\u094d"], [" \u092e", "\u093f\u0932 "], [" \u092e", "\u0949"], [" \u092e\u0947\u0902 ", "\u090f\u0915 "], ["\u0906\u0902\u0915", "\u0921\u093c"], ["\u0909", "\u0902\u0938"], ["\u090f", "\u0928 "], ["\u090f\u092e", "\u0938\u0940"], ["\u0915\u094d", "\u0915\u093e "], ["\u0915\u094d\u0930", "\u0947"], ["\u0917", "\u092e"], ["\u0917\u092f\u093e ", "\u0914\u0930 "], ["\u0917\u0941\u0930\u0941", "\u0935\u093e\u0930 "], ["\u0917\u094d", "\u0935\u093e\u0932"], ["\u0918\u091f", "\u0928\u093e \u092e\u0947\u0902 "], ["\u0918\u0942", "\u092e"], ["\u091a", "\u0940 "], ["\u091a\u093e\u0930", "\u094d\u092f "], ["\u091c\u093e\u0928", "\u0940 "], ["\u091c\u0940", " \u0915\u0947 "], ["\u091c\u0941\u0930\u094d", "\u092e\u093e\u0928\u093e "], ["\u0922\u093e", "\u0902\u091a"], ["\u0924\u0924\u094d", "\u0915\u093e\u0932 "], ["\u0924\u0930\u094d", "\u0915 "], ["\u0924\u094d", "\u0938\u0935"], ["\u0927\u0940", "\u0930\u0947"], ["\u0928\u0939\u0940\u0902 ", "\u0932\u0917"], ["\u0928\u093e\u092e\u093e\u0902\u0915", "\u0928 "], ["\u0928\u093e\u0930\u093e\u092f", "\u0923 "], ["\u0928\u093f\u0915", "\u093e\u0932 "], ["\u0928\u0941", "\u092e\u093e\u0928"], ["\u0928\u0947 \u0915\u0939\u093e ", "\u0939\u0948 \u0915\u093f "], ["\u092b", "\u093e\u0902"], ["\u092b\u0948", "\u0915\u094d"], ["\u092c\u0902\u0917", "\u093e\u0932"], ["\u092c\u093e", "\u095c"], ["\u092c\u094d", "\u0932\u0949\u0915"], ["\u092d", " "], ["\u092d\u093e\u091c\u092a\u093e", " \u0915\u0947 "], ["\u092d\u0940 ", "\u0939\u0948\u0964"], ["\u092e", "\u0930\u0940"], ["\u092e\u093f\u0932", "\u0940\u0964"], ["\u092e\u0941\u0916\u094d\u092f", " \u0905\u0924\u093f\u0925\u093f"], ["\u092e\u094c", "\u091c\u0942\u0926\u093e "], ["\u092f", "\u093e \u0939\u0948\u0964"], ["\u092f\u093e\u0924\u094d\u0930", "\u093e"], ["\u0930\u092e\u0947", "\u0936"], ["\u0930\u093f", "\u0902\u0917 "], ["\u0932", "\u0916\u0928"], ["\u0932", "\u0921\u093c\u0915"], ["\u0932", "\u094d\u091f"], ["\u0932\u093f", "\u0924"], ["\u0932\u094b", "\u0915 "], ["\u0935\u093f", "\u0938\u094d"], ["\u0938\u0902\u092c\u0902\u0927", "\u0940 "], ["\u0938\u0930\u0915\u093e\u0930", " \u0915\u094b "], ["\u0938\u093e\u0907", "\u0921"], ["\u0939\u0948\u0902, ", "\u0914\u0930 "], ["\u093e\u0930", "\u0947 "], ["\u093f", " "], ["\u094b", "\u0930"], ["\u094d\u092f", "\u0930\u094d\u0925"], ["\u094d\u0930\u094b", "\u0924"], [" \u0905\u0902", "\u0924\u0930"], [" \u0915\u0930\u0928\u0947 \u0915\u0940 ", "\u092e\u093e\u0902\u0917"], [" \u0915\u0940 ", "\u0917\u0908"], [" \u0915\u0949\u0932\u0947\u091c", " \u092e\u0947\u0902 "], [" \u092a\u093e\u0930", "\u094d\u091f\u0940 "], [" \u092c\u093f", "\u091c"], [" \u0938", "\u0921\u093c\u0915"], [" \u0938\u093e\u0932", " \u092e\u0947\u0902 "], [" \u0938\u0947 ", "\u092c\u091a"], [" \u0938\u094d\u0925\u093e\u0928", "\u0940\u092f"], ["e", "n"], ["\u0902\u0926\u0940", "\u092a"], ["\u0905", "\u092a\u094d\u0930\u0948"], ["\u0905\u092d\u093f", "\u092d\u093e\u0935"], ["\u0906\u0907\u0938\u094b", "\u0932\u0947"], ["\u0907\u0928", "\u0915\u093e "], ["\u0907\u0938", " \u0938\u093e\u0932 "], ["\u0915\u0943", "\u0924\u093f"], ["\u0915\u0947", "\u0924 "], ["\u0916\u093f\u0932\u093e", "\u0921\u093c"], ["\u0916\u0941", "\u0926 "], ["\u0917\u0902", "\u091c "], ["\u091c", " \u092a\u0930 "], ["\u091c\u0948", "\u0928 "], ["\u091f\u093f", "\u0902\u0917 "], ["\u0921\u093e\u092f", "\u0930\u0947"], ["\u0924", "\u0928\u093e\u0935"], ["\u0924\u093e \u0939\u0948 ", "\u0924\u094b "], ["\u0924\u094b", "\u0921\u093c"], ["\u0925\u093e\u0928\u093e", "\u0927\u094d\u092f\u0915\u094d\u0937"], ["\u0925\u0940 ", "\u0914\u0930 "], ["\u0926\u093f", "\u0916 "], ["\u0926\u094b", "\u0938\u094d\u0924"], ["\u0928\u0947\u0924\u0943", "\u0924\u094d\u0935 "], ["\u092a", "\u0902\u0921"], ["\u092a\u0930\u093f", "\u0935\u0939"], ["\u092a\u0941\u0930", "\u093e\u0928\u0940 "], ["\u092a\u094d\u0924\u093e", "\u0939 "], ["\u092a\u094d\u0930", "\u093f\u092f"], ["\u092c\u0922\u093c", "\u0915\u0930 "], ["\u092c\u0926\u0932\u093e", "\u0935 "], ["\u092d", "\u0930\u0947 "], ["\u092e\u0930\u0940\u091c", "\u094b\u0902 \u0915\u0940 "], ["\u092e\u093e", "\u0924\u093e-"], ["\u092e\u093e\u0928", "\u0947 \u092a\u0930 "], ["\u092e\u0941\u0916\u094d\u092f", "\u093e\u0932\u092f"], ["\u092e\u0948", "\u0928\u0947"], ["\u092e\u094c\u091c\u0942\u0926 ", "\u0925\u0947\u0964"], ["\u0930\u093e", "\u0907"], ["\u0932\u093e ", "\u092e\u0947\u0902 "], ["\u0935", "\u094d\u0930"], ["\u0935\u093e\u0938\u094d\u0924", "\u0935\u093f\u0915"], ["\u0935\u093f\u0936\u094d", "\u0935\u093e\u0938 "], ["\u0936", "\u092a"], ["\u0936\u0939", "\u0930\u0940"], ["\u0936\u0941\u0915\u094d\u0930", "\u0935\u093e\u0930 \u0915\u094b"], ["\u0938\u0902\u0915\u094d\u0930\u092e", "\u0923 "], ["\u0938\u092e\u094d", "\u092e\u0947\u0932"], ["\u0938\u0930\u0915\u093e\u0930", " \u0915\u0947 "], ["\u0938\u093e", "\u0947"], ["\u0938\u0942\u091a\u0928\u093e ", "\u092a\u0930 "], ["\u0938\u094d\u0925\u093e\u0928", " \u092a\u0930 "], ["\u0939\u092e\u093e\u0930", "\u093e "], ["\u0939\u093f", "\u0902"], ["\u0939\u0949", "\u0938\u094d\u092a\u093f"], ["\u093f\u092f\u094b\u091c", "\u0928\u093e "], ["\u0942", "\u0939 "], ["\u0947\u0902 ", "\u092a\u0930 "], ["\u0947\u0921", "\u093f\u092f"], [" \u0915\u0930", "\u0924\u0940 \u0939\u0948\u0964"], [" \u0915\u0930", "\u0947\u0902"], [" \u0915\u0947 \u091c", "\u0930\u093f\u090f "], [" \u092a\u0930\u0947\u0936", "\u093e\u0928"], [" \u092a\u0942\u0930\u0940 ", "\u0924\u0930\u0939 \u0938\u0947 "], [" \u0938", "\u0947\u0902"], [" \u0938\u092e", "\u0942\u0939"], [" \u0938\u093e\u0932", " \u0915\u093e "], [" \u0938\u093f\u0924\u0902\u092c", "\u0930 \u0915\u094b "], [" \u0938\u0947 ", "\u092d\u0940 "], [",", " \u0938\u094d"], ["2", ","], ["20", "20 "], ["\u0902\u0917", "\u0928"], ["\u0905\u0902\u0924\u0930\u094d\u0930\u093e\u0937\u094d\u091f\u094d\u0930", "\u0940\u092f "], ["\u0905\u091a\u093e\u0928", "\u0915 "], ["\u0907", "\u092e\u0930"], ["\u0907\u0938", "\u0938\u0947"], ["\u0907\u0938 \u0924\u0930\u0939", " \u0915\u0940 "], ["\u0909\u0928", "\u0915\u0947"], ["\u090f", "\u0915\u094d\u091f"], ["\u0915\u094d\u0937\u0947", "\u0924\u094d\u0930"], ["\u0916\u094b", "\u091c"], ["\u0917", "\u093e\u0930 "], ["\u0917\u0941", "\u091c\u0930"], ["\u091a", "\u093e\u0928 "], ["\u091a\u0940", "\u091c"], ["\u091c\u093e", "\u0924\u0947 "], ["\u091c\u093f\u0938\u0915\u0947 ", "\u092c\u093e\u0926 "], ["\u091c\u094d\u092f\u093e\u0926\u093e", "\u0924\u0930 "], ["\u0920\u093e", "\u0915\u0941"], ["\u0926\u0947", "\u0902\u0964"], ["\u0928", " \u0915\u094b"], ["\u0928", "\u094d\u091f"], ["\u0928\u093f", "\u0935\u093e\u0938"], ["\u0928\u0947", " \u0915\u0947 \u0915\u093e\u0930\u0923"], ["\u0928\u0947 \u0915\u0940", " \u0915\u094b\u0936\u093f\u0936"], ["\u0928\u0947\u0936\u0928", "\u0932 "], ["\u092a\u0930\u093f\u0923\u093e\u092e", "\u0938\u094d\u0935\u0930\u0942\u092a"], ["\u092a\u0947", "\u092f"], ["\u092a\u094d\u0930\u0936\u093e\u0938", "\u0928 "], ["\u092b\u094d", "\u0932\u093e\u0907"], ["\u092c", "\u0924\u093e "], ["\u092c\u0922\u093c", "\u0924\u0940 "], ["\u092c\u0928", "\u093e\u0928\u0947 \u0915\u0947 \u0932\u093f\u090f "], ["\u092c\u093e", "\u092c\u093e "], ["\u092c\u093e\u0932", "\u093f"], ["\u092c\u0947", "\u0921"], ["\u092d\u0940", "\u095c"], ["\u092d\u0947", "\u0926"], ["\u092e\u093e\u0927\u094d\u092f\u092e", "\u093f\u0915 "], ["\u092e\u093f\u0932", "\u0915\u0930 "], ["\u0930", "\u093e\u0928 "], ["\u0930\u0935\u093f", "\u0902\u0926"], ["\u0930\u0947", "\u0916\u093e "], ["\u0932\u0902\u092c\u0947 ", "\u0938\u092e\u092f \u0938\u0947 "], ["\u0932\u0947", "\u0928\u0947 \u0915\u0940 "], ["\u0932\u094d\u0938", "\u093f\u092f"], ["\u0935\u093e\u092f\u0930", "\u0932"], ["\u0936\u094d\u0935\u093e\u0938", "\u0928 "], ["\u0938\u0940", " \u0915\u0940 "], ["\u0938\u094d\u091f", "\u0949"], ["\u0938\u094d\u0925\u093e\u092a", "\u093f\u0924"], ["\u0939", "\u0924\u094d\u092f"], ["\u0939", "\u093f\u0924 "], ["\u0939\u0948", "\u092f\u093e"], [" \u0905\u0917\u0938\u094d\u0924", " \u0915\u094b "], [" \u0915", "\u0930\u094d\u092b\u094d\u092f\u0942"], [" \u0915\u0930", "\u0947\u0917\u093e\u0964"], [" \u0915\u0930\u0928\u093e ", "\u0939\u0948\u0964"], [" \u0915\u093f\u0938\u093e\u0928", "\u094b\u0902 \u0928\u0947 "], [" \u0915\u093f\u0938\u0940", " \u0915\u094b "], [" \u0915\u0947", "\u0902\u0926"], [" \u091c", "\u0932"], [" \u092a", "\u0930\u094d"], [" \u092a\u0939", "\u0928"], [" \u092a\u094d\u0930", "\u092d\u093e\u0935\u093f\u0924 "], [" \u092a\u094d\u0930\u0924\u093f\u0936", "\u0924"], [" \u092a\u094d\u0930\u092d\u093e\u0935", "\u0940 "], ["4", "6"], ["9", "9"], ["\u0902\u0917", "\u093f\u0915"], ["\u0905", "\u0938\u094d\u0925"], ["\u0905\u092a", "\u0928\u0947"], ["\u0905\u0935", "\u0917\u0924"], ["\u0906 ", "\u0930\u0939\u0940 \u0939\u0948\u0964"], ["\u0907\u0938", "\u0915\u093e"], ["\u0913\u0902 ", "\u0914\u0930 "], ["\u0915\u094b", "\u092a"], ["\u091a\u093e\u0930", "\u094d\u092f"], ["\u091a\u094d", "\u091b\u093e"], ["\u091c\u093f\u0938\u0915", "\u0947"], ["\u091f", "\u094c"], ["\u091f\u0940 ", "\u092e\u0947\u0902 "], ["\u0921", "\u0932 "], ["\u0921\u0940", "\u090f\u0938\u092a\u0940 "], ["\u0924", "\u0935\u093e\u0932\u0940 "], ["\u0924", "\u0938\u094d"], ["\u0924\u093f", "\u0935\u093e\u0930"], ["\u0925\u0947", "."], ["\u0926", "\u093f\u092f\u093e, "], ["\u0926\u093f\u0938\u0902", "\u092c\u0930 \u0915\u094b "], ["\u0926\u0940", " \u0915\u093e "], ["\u0926\u0940 ", "\u0925\u0940\u0964"], ["\u0926\u0942", "\u0930\u0940"], ["\u0927", "\u0947"], ["\u0927\u0930", "\u0928\u093e "], ["\u0928", "\u094b\u0902 \u0915\u094b "], ["\u0928", "\u094b\u0902 \u092e\u0947\u0902 "], ["\u0928\u093f", "\u0902\u0917 "], ["\u0928\u093f\u092f\u0941", "\u0915\u094d\u0924"], ["\u0928\u094d\u092f\u093e\u092f", "\u093e\u0932\u092f"], ["\u092a", "\u0921\u093c\u093e "], ["\u092a\u0930", "\u094d\u092f"], ["\u092a\u0948", "\u0938\u0947 "], ["\u092a\u094d\u0930", "\u0938\u093e\u0926 "], ["\u092a\u094d\u0930\u093e", "\u0915\u0943"], ["\u092c", "\u092f\u093e\u0928 "], ["\u092c\u0930", "\u0924"], ["\u092c\u093f", "\u0928\u093e"], ["\u092c\u0947", "\u091f\u0947"], ["\u092e", " \u0915\u094b "], ["\u092e", "\u0938\u094d"], ["\u092e\u093f\u0932", "\u0947\u0964"], ["\u092e\u0941", "\u0915\u094d\u0924"], ["\u092e\u0941\u0916", "\u093f\u092f\u093e "], ["\u092e\u0941\u0926\u093e\u092f", "\u093f\u0915"], ["\u092f\u093e\u0924\u094d\u0930", "\u093e "], ["\u0930\u0939", "\u093e"], ["\u0930\u093e\u091c", "\u0938\u094d\u0925\u093e\u0928 "], ["\u0930\u093f", "\u090f"], ["\u0932\u093e", "\u0939"], ["\u0932\u094d", "\u0932"], ["\u0935\u0902", "\u0936"], ["\u0935\u093e", "\u0924\u093e"], ["\u0935\u0948\u0915\u094d\u0938\u0940", "\u0928 "], ["\u0937\u094d\u0923", "\u0941"], ["\u0938\u093e", "\u0917\u0930 "], ["\u0938\u0942", "\u0924\u094d\u0930"], ["\u0938\u0947", "\u0935"], ["\u0939", "\u0930\u0940 "], ["\u0939\u094b", "\u0924\u0947 \u0939\u0948\u0902\u0964"], ["\u093e\u0932", "\u0940"], ["\u0947\u0902 ", "\u0914\u0930 "], [" \u0905\u0938\u094d\u092a\u0924\u093e\u0932", " \u092e\u0947\u0902 "], [" \u0915", "\u0932\u0947"], [" \u0915\u0902", "\u091f\u0947\u0928"], [" \u0915\u0930 \u0930\u0939\u0947 ", "\u0925\u0947\u0964"], [" \u0915\u0930\u0947\u0902\u0917", "\u0947 "], [" \u0915\u093e ", "\u0938\u092c\u0938\u0947 "], [" \u0915\u093e\u0930\u094d\u092f", "\u093e\u0932\u092f "], [" \u0915\u0940 \u0915", "\u094d\u0937\u092e"], [" \u0915\u0940 \u0915\u0940", "\u092e\u0924"], [" \u0915\u094b", " \u0938\u093e"], [" \u092a", "\u0902\u0921"], [" \u092a\u0930\u093f", "\u0935\u0939"], [" \u092a\u094d\u0930", "\u0938\u093e\u0926"], [" \u092a\u094d\u0930\u0927\u093e\u0928", "\u092e\u0902\u0924\u094d\u0930\u0940 "], [" \u092c", "\u091c"], [" \u092c\u093e\u0930", "\u093f\u0936"], [" \u092e\u0940", "\u091f\u0930 "], [" \u0938\u094d\u0925", "\u093f\u0924\u093f "],
[...]
